#include "magic_wand_model_data.h"

// We need to keep the data array aligned on some architectures.
#ifdef __has_attribute
#define HAVE_ATTRIBUTE(x) __has_attribute(x)
#else
#define HAVE_ATTRIBUTE(x) 0
#endif
#if HAVE_ATTRIBUTE(aligned) || (defined(__GNUC__) && !defined(__clang__))
#define DATA_ALIGN_ATTRIBUTE __attribute__((aligned(4)))
#else
#define DATA_ALIGN_ATTRIBUTE
#endif

const unsigned char g_magic_wand_model_data[] DATA_ALIGN_ATTRIBUTE = {
  0x1c, 0x00, 0x00, 0x00, 0x54, 0x46, 0x4c, 0x33, 0x14, 0x00, 0x20, 0x00,
  0x04, 0x00, 0x08, 0x00, 0x0c, 0x00, 0x10, 0x00, 0x14, 0x00, 0x00, 0x00,
  0x18, 0x00, 0x1c, 0x00, 0x14, 0x00, 0x00, 0x00, 0x03, 0x00, 0x00, 0x00,
  0x18, 0x00, 0x00, 0x00, 0x2c, 0x00, 0x00, 0x00, 0xd8, 0x00, 0x00, 0x00,
  0x2c, 0x00, 0x00, 0x00, 0x80, 0x00, 0x00, 0x00, 0x78, 0x00, 0x00, 0x00,
  0x05, 0x00, 0x00, 0x00, 0x28, 0x07, 0x00, 0x00, 0x44, 0x06, 0x00, 0x00,
  0xbc, 0x03, 0x00, 0x00, 0xf8, 0x02, 0x00, 0x00, 0xac, 0x01, 0x00, 0x00,
  0x01, 0x00, 0x00, 0x00, 0xd0, 0x00, 0x00, 0x00, 0x14, 0x00, 0x00, 0x00,
  0x98, 0x32, 0x00, 0x00, 0x94, 0x32, 0x00, 0x00, 0x8c, 0x31, 0x00, 0x00,
  0xd8, 0x30, 0x00, 0x00, 0x30, 0x30, 0x00, 0x00, 0xbc, 0x2f, 0x00, 0x00,
  0x50, 0x2f, 0x00, 0x00, 0x00, 0x13, 0x00, 0x00, 0xec, 0x11, 0x00, 0x00,
  0x10, 0x10, 0x00, 0x00, 0xb4, 0x07, 0x00, 0x00, 0x6c, 0x32, 0x00, 0x00,
  0x68, 0x32, 0x00, 0x00, 0x64, 0x32, 0x00, 0x00, 0x60, 0x32, 0x00, 0x00,
  0x5c, 0x32, 0x00, 0x00, 0x58, 0x32, 0x00, 0x00, 0x54, 0x32, 0x00, 0x00,
  0x50, 0x32, 0x00, 0x00, 0x3c, 0x00, 0x00, 0x00, 0x00, 0x00, 0x00, 0x00,
  0x01, 0x00, 0x00, 0x00, 0x0c, 0x00, 0x00, 0x00, 0x08, 0x00, 0x0c, 0x00,
  0x04, 0x00, 0x08, 0x00, 0x08, 0x00, 0x00, 0x00, 0x08, 0x00, 0x00, 0x00,
  0x13, 0x00, 0x00, 0x00, 0x13, 0x00, 0x00, 0x00, 0x6d, 0x69, 0x6e, 0x5f,
  0x72, 0x75, 0x6e, 0x74, 0x69, 0x6d, 0x65, 0x5f, 0x76, 0x65, 0x72, 0x73,
  0x69, 0x6f, 0x6e, 0x00, 0xfa, 0xce, 0xff, 0xff, 0x04, 0x00, 0x00, 0x00,
  0x10, 0x00, 0x00, 0x00, 0x31, 0x2e, 0x35, 0x2e, 0x30, 0x00, 0x00, 0x00,
  0x00, 0x00, 0x00, 0x00, 0x00, 0x00, 0x00, 0x00, 0x0f, 0x00, 0x00, 0x00,
  0x4d, 0x4c, 0x49, 0x52, 0x20, 0x43, 0x6f, 0x6e, 0x76, 0x65, 0x72, 0x74,
  0x65, 0x64, 0x2e, 0x00, 0x00, 0x00, 0x0e, 0x00, 0x18, 0x00, 0x04, 0x00,
  0x08, 0x00, 0x0c, 0x00, 0x10, 0x00, 0x14, 0x00, 0x0e, 0x00, 0x00, 0x00,
  0x14, 0x00, 0x00, 0x00, 0x5c, 0x00, 0x00, 0x00, 0x60, 0x00, 0x00, 0x00,
  0x64, 0x00, 0x00, 0x00, 0x84, 0x00, 0x00, 0x00, 0x12, 0x00, 0x00, 0x00,
  0x58, 0x31, 0x00, 0x00, 0xe8, 0x30, 0x00, 0x00, 0x44, 0x30, 0x00, 0x00,
  0x9c, 0x2f, 0x00, 0x00, 0xf4, 0x2e, 0x00, 0x00, 0x94, 0x2e, 0x00, 0x00,
  0x2c, 0x2e, 0x00, 0x00, 0xd8, 0x11, 0x00, 0x00, 0xbc, 0x10, 0x00, 0x00,
  0xe0, 0x0e, 0x00, 0x00, 0x0c, 0x06, 0x00, 0x00, 0x28, 0x05, 0x00, 0x00,
  0xe8, 0x03, 0x00, 0x00, 0x3c, 0x03, 0x00, 0x00, 0x98, 0x02, 0x00, 0x00,
  0xd4, 0x01, 0x00, 0x00, 0x10, 0x01, 0x00, 0x00, 0x84, 0x00, 0x00, 0x00,
  0x01, 0x00, 0x00, 0x00, 0x00, 0x00, 0x00, 0x00, 0x01, 0x00, 0x00, 0x00,
  0x11, 0x00, 0x00, 0x00, 0x08, 0x00, 0x00, 0x00, 0x74, 0x05, 0x00, 0x00,
  0x94, 0x04, 0x00, 0x00, 0x78, 0x03, 0x00, 0x00, 0xbc, 0x02, 0x00, 0x00,
  0x30, 0x02, 0x00, 0x00, 0x50, 0x01, 0x00, 0x00, 0xa8, 0x00, 0x00, 0x00,
  0x10, 0x00, 0x00, 0x00, 0x04, 0x00, 0x00, 0x00, 0x6d, 0x61, 0x69, 0x6e,
  0x00, 0x00, 0x00, 0x00, 0x7a, 0xff, 0xff, 0xff, 0x00, 0x00, 0x00, 0x09,
  0x04, 0x00, 0x00, 0x00, 0x1c, 0x00, 0x00, 0x00, 0x10, 0x00, 0x00, 0x00,
  0x04, 0x00, 0x00, 0x00, 0xf6, 0xcf, 0xff, 0xff, 0x00, 0x00, 0x80, 0x3f,
  0x01, 0x00, 0x00, 0x00, 0x11, 0x00, 0x00, 0x00, 0x01, 0x00, 0x00, 0x00,
  0x10, 0x00, 0x00, 0x00, 0xa0, 0xfa, 0xff, 0xff, 0x19, 0x00, 0x00, 0x00,
  0x00, 0x00, 0x00, 0x19, 0x01, 0x00, 0x00, 0x00, 0x84, 0xcf, 0xff, 0xff,
  0x14, 0x00, 0x00, 0x00, 0x12, 0x00, 0x00, 0x00, 0x18, 0x00, 0x00, 0x00,
  0x30, 0x00, 0x00, 0x00, 0x20, 0x00, 0x00, 0x00, 0x02, 0x00, 0x00, 0x00,
  0x01, 0x00, 0x00, 0x00, 0x03, 0x00, 0x00, 0x00, 0x08, 0x00, 0x00, 0x00,
  0x49, 0x64, 0x65, 0x6e, 0x74, 0x69, 0x74, 0x79, 0x00, 0x00, 0x00, 0x00,
  0x02, 0x00, 0x00, 0x00, 0xff, 0xff, 0xff, 0xff, 0x03, 0x00, 0x00, 0x00,
  0x68, 0xd0, 0xff, 0xff, 0x00, 0x00, 0x0e, 0x00, 0x18, 0x00, 0x08, 0x00,
  0x0c, 0x00, 0x10, 0x00, 0x07, 0x00, 0x14, 0x00, 0x0e, 0x00, 0x00, 0x00,
  0x00, 0x00, 0x00, 0x08, 0x03, 0x00, 0x00, 0x00, 0x18, 0x00, 0x00, 0x00,
  0x0c, 0x00, 0x00, 0x00, 0x04, 0x00, 0x00, 0x00, 0x84, 0xcf, 0xff, 0xff,
  0x01, 0x00, 0x00, 0x00, 0x10, 0x00, 0x00, 0x00, 0x03, 0x00, 0x00, 0x00,
  0x0f, 0x00, 0x00, 0x00, 0x07, 0x00, 0x00, 0x00, 0x04, 0x00, 0x00, 0x00,
  0x0c, 0xd0, 0xff, 0xff, 0x14, 0x00, 0x00, 0x00, 0x11, 0x00, 0x00, 0x00,
  0x18, 0x00, 0x00, 0x00, 0x5c, 0x00, 0x00, 0x00, 0x4c, 0x00, 0x00, 0x00,
  0x02, 0x00, 0x00, 0x00, 0x01, 0x00, 0x00, 0x00, 0x03, 0x00, 0x00, 0x00,
  0x34, 0x00, 0x00, 0x00, 0x73, 0x65, 0x71, 0x75, 0x65, 0x6e, 0x74, 0x69,
  0x61, 0x6c, 0x2f, 0x64, 0x65, 0x6e, 0x73, 0x65, 0x5f, 0x31, 0x2f, 0x4d,
  0x61, 0x74, 0x4d, 0x75, 0x6c, 0x3b, 0x73, 0x65, 0x71, 0x75, 0x65, 0x6e,
  0x74, 0x69, 0x61, 0x6c, 0x2f, 0x64, 0x65, 0x6e, 0x73, 0x65, 0x5f, 0x31,
  0x2f, 0x42, 0x69, 0x61, 0x73, 0x41, 0x64, 0x64, 0x00, 0x00, 0x00, 0x00,
  0x02, 0x00, 0x00, 0x00, 0xff, 0xff, 0xff, 0xff, 0x03, 0x00, 0x00, 0x00,
  0x0c, 0xd0, 0xff, 0xff, 0xda, 0xfc, 0xff, 0xff, 0x00, 0x00, 0x00, 0x08,
  0x03, 0x00, 0x00, 0x00, 0x24, 0x00, 0x00, 0x00, 0x18, 0x00, 0x00, 0x00,
  0x0c, 0x00, 0x00, 0x00, 0x00, 0x00, 0x06, 0x00, 0x08, 0x00, 0x07, 0x00,
  0x06, 0x00, 0x00, 0x00, 0x00, 0x00, 0x00, 0x01, 0x01, 0x00, 0x00, 0x00,
  0x0f, 0x00, 0x00, 0x00, 0x03, 0x00, 0x00, 0x00, 0x0e, 0x00, 0x00, 0x00,
  0x06, 0x00, 0x00, 0x00, 0x03, 0x00, 0x00, 0x00, 0xe8, 0xfb, 0xff, 0xff,
  0x09, 0x00, 0x00, 0x00, 0x00, 0x00, 0x00, 0x09, 0x01, 0x00, 0x00, 0x00,
  0xcc, 0xd0, 0xff, 0xff, 0x14, 0x00, 0x00, 0x00, 0x10, 0x00, 0x00, 0x00,
  0x18, 0x00, 0x00, 0x00, 0x6c, 0x00, 0x00, 0x00, 0x5c, 0x00, 0x00, 0x00,
  0x02, 0x00, 0x00, 0x00, 0x01, 0x00, 0x00, 0x00, 0x10, 0x00, 0x00, 0x00,
  0x46, 0x00, 0x00, 0x00, 0x73, 0x65, 0x71, 0x75, 0x65, 0x6e, 0x74, 0x69,
  0x61, 0x6c, 0x2f, 0x64, 0x65, 0x6e, 0x73, 0x65, 0x2f, 0x4d, 0x61, 0x74,
  0x4d, 0x75, 0x6c, 0x3b, 0x73, 0x65, 0x71, 0x75, 0x65, 0x6e, 0x74, 0x69,
  0x61, 0x6c, 0x2f, 0x64, 0x65, 0x6e, 0x73, 0x65, 0x2f, 0x52, 0x65, 0x6c,
  0x75, 0x3b, 0x73, 0x65, 0x71, 0x75, 0x65, 0x6e, 0x74, 0x69, 0x61, 0x6c,
  0x2f, 0x64, 0x65, 0x6e, 0x73, 0x65, 0x2f, 0x42, 0x69, 0x61, 0x73, 0x41,
  0x64, 0x64, 0x00, 0x00, 0x02, 0x00, 0x00, 0x00, 0xff, 0xff, 0xff, 0xff,
  0x10, 0x00, 0x00, 0x00, 0xec, 0xd1, 0xff, 0xff, 0x00, 0x00, 0x0a, 0x00,
  0x10, 0x00, 0x04, 0x00, 0x08, 0x00, 0x0c, 0x00, 0x0a, 0x00, 0x00, 0x00,
  0x02, 0x00, 0x00, 0x00, 0x10, 0x00, 0x00, 0x00, 0x04, 0x00, 0x00, 0x00,
  0x01, 0x00, 0x00, 0x00, 0x0e, 0x00, 0x00, 0x00, 0x02, 0x00, 0x00, 0x00,
  0x0d, 0x00, 0x00, 0x00, 0x05, 0x00, 0x00, 0x00, 0xa8, 0xfc, 0xff, 0xff,
  0x16, 0x00, 0x00, 0x00, 0x00, 0x00, 0x00, 0x16, 0x01, 0x00, 0x00, 0x00,
  0x8c, 0xd1, 0xff, 0xff, 0x14, 0x00, 0x00, 0x00, 0x0f, 0x00, 0x00, 0x00,
  0x18, 0x00, 0x00, 0x00, 0x40, 0x00, 0x00, 0x00, 0x30, 0x00, 0x00, 0x00,
  0x02, 0x00, 0x00, 0x00, 0x01, 0x00, 0x00, 0x00, 0x70, 0x00, 0x00, 0x00,
  0x1a, 0x00, 0x00, 0x00, 0x73, 0x65, 0x71, 0x75, 0x65, 0x6e, 0x74, 0x69,
  0x61, 0x6c, 0x2f, 0x66, 0x6c, 0x61, 0x74, 0x74, 0x65, 0x6e, 0x2f, 0x52,
  0x65, 0x73, 0x68, 0x61, 0x70, 0x65, 0x00, 0x00, 0x02, 0x00, 0x00, 0x00,
  0xff, 0xff, 0xff, 0xff, 0x70, 0x00, 0x00, 0x00, 0x70, 0xd1, 0xff, 0xff,
  0x3e, 0xfe, 0xff, 0xff, 0x00, 0x00, 0x00, 0x05, 0x01, 0x00, 0x00, 0x00,
  0x38, 0x00, 0x00, 0x00, 0x2c, 0x00, 0x00, 0x00, 0x14, 0x00, 0x00, 0x00,
  0x00, 0x00, 0x0e, 0x00, 0x14, 0x00, 0x00, 0x00, 0x10, 0x00, 0x0c, 0x00,
  0x08, 0x00, 0x04, 0x00, 0x0e, 0x00, 0x00, 0x00, 0x03, 0x00, 0x00, 0x00,
  0x01, 0x00, 0x00, 0x00, 0x03, 0x00, 0x00, 0x00, 0x01, 0x00, 0x00, 0x00,
  0x01, 0x00, 0x00, 0x00, 0x0d, 0x00, 0x00, 0x00, 0x01, 0x00, 0x00, 0x00,
  0x0c, 0x00, 0x00, 0x00, 0x2c, 0xd2, 0xff, 0xff, 0x14, 0x00, 0x00, 0x00,
  0x0e, 0x00, 0x00, 0x00, 0x20, 0x00, 0x00, 0x00, 0x58, 0x00, 0x00, 0x00,
  0x40, 0x00, 0x00, 0x00, 0x04, 0x00, 0x00, 0x00, 0x01, 0x00, 0x00, 0x00,
  0x07, 0x00, 0x00, 0x00, 0x01, 0x00, 0x00, 0x00, 0x10, 0x00, 0x00, 0x00,
  0x22, 0x00, 0x00, 0x00, 0x73, 0x65, 0x71, 0x75, 0x65, 0x6e, 0x74, 0x69,
  0x61, 0x6c, 0x2f, 0x6d, 0x61, 0x78, 0x5f, 0x70, 0x6f, 0x6f, 0x6c, 0x69,
  0x6e, 0x67, 0x32, 0x64, 0x5f, 0x31, 0x2f, 0x4d, 0x61, 0x78, 0x50, 0x6f,
  0x6f, 0x6c, 0x00, 0x00, 0x04, 0x00, 0x00, 0x00, 0xff, 0xff, 0xff, 0xff,
  0x07, 0x00, 0x00, 0x00, 0x01, 0x00, 0x00, 0x00, 0x10, 0x00, 0x00, 0x00,
  0x28, 0xd2, 0xff, 0xff, 0x1a, 0xfe, 0xff, 0xff, 0x00, 0x00, 0x00, 0x01,
  0x24, 0x00, 0x00, 0x00, 0x18, 0x00, 0x00, 0x00, 0x04, 0x00, 0x00, 0x00,
  0x0c, 0xfe, 0xff, 0xff, 0x01, 0x00, 0x00, 0x00, 0x01, 0x00, 0x00, 0x00,
  0x00, 0x00, 0x00, 0x01, 0x01, 0x00, 0x00, 0x00, 0x0c, 0x00, 0x00, 0x00,
  0x03, 0x00, 0x00, 0x00, 0x0b, 0x00, 0x00, 0x00, 0x09, 0x00, 0x00, 0x00,
  0x02, 0x00, 0x00, 0x00, 0xd4, 0xd2, 0xff, 0xff, 0x14, 0x00, 0x00, 0x00,
  0x0d, 0x00, 0x00, 0x00, 0x20, 0x00, 0x00, 0x00, 0xb8, 0x00, 0x00, 0x00,
  0xa0, 0x00, 0x00, 0x00, 0x04, 0x00, 0x00, 0x00, 0x01, 0x00, 0x00, 0x00,
  0x15, 0x00, 0x00, 0x00, 0x01, 0x00, 0x00, 0x00, 0x10, 0x00, 0x00, 0x00,
  0x83, 0x00, 0x00, 0x00, 0x73, 0x65, 0x71, 0x75, 0x65, 0x6e, 0x74, 0x69,
  0x61, 0x6c, 0x2f, 0x63, 0x6f, 0x6e, 0x76, 0x32, 0x64, 0x5f, 0x31, 0x2f,
  0x52, 0x65, 0x6c, 0x75, 0x3b, 0x73, 0x65, 0x71, 0x75, 0x65, 0x6e, 0x74,
  0x69, 0x61, 0x6c, 0x2f, 0x63, 0x6f, 0x6e, 0x76, 0x32, 0x64, 0x5f, 0x31,
  0x2f, 0x42, 0x69, 0x61, 0x73, 0x41, 0x64, 0x64, 0x3b, 0x73, 0x65, 0x71,
  0x75, 0x65, 0x6e, 0x74, 0x69, 0x61, 0x6c, 0x2f, 0x63, 0x6f, 0x6e, 0x76,
  0x32, 0x64, 0x5f, 0x31, 0x2f, 0x43, 0x6f, 0x6e, 0x76, 0x32, 0x44, 0x3b,
  0x73, 0x65, 0x71, 0x75, 0x65, 0x6e, 0x74, 0x69, 0x61, 0x6c, 0x2f, 0x63,
  0x6f, 0x6e, 0x76, 0x32, 0x64, 0x5f, 0x31, 0x2f, 0x42, 0x69, 0x61, 0x73,
  0x41, 0x64, 0x64, 0x2f, 0x52, 0x65, 0x61, 0x64, 0x56, 0x61, 0x72, 0x69,
  0x61, 0x62, 0x6c, 0x65, 0x4f, 0x70, 0x2f, 0x72, 0x65, 0x73, 0x6f, 0x75,
  0x72, 0x63, 0x65, 0x00, 0x04, 0x00, 0x00, 0x00, 0xff, 0xff, 0xff, 0xff,
  0x15, 0x00, 0x00, 0x00, 0x01, 0x00, 0x00, 0x00, 0x10, 0x00, 0x00, 0x00,
  0x40, 0xd4, 0xff, 0xff, 0x00, 0x00, 0x0e, 0x00, 0x1a, 0x00, 0x08, 0x00,
  0x0c, 0x00, 0x10, 0x00, 0x07, 0x00, 0x14, 0x00, 0x0e, 0x00, 0x00, 0x00,
  0x00, 0x00, 0x00, 0x05, 0x01, 0x00, 0x00, 0x00, 0x3c, 0x00, 0x00, 0x00,
  0x30, 0x00, 0x00, 0x00, 0x14, 0x00, 0x00, 0x00, 0x00, 0x00, 0x0e, 0x00,
  0x18, 0x00, 0x17, 0x00, 0x10, 0x00, 0x0c, 0x00, 0x08, 0x00, 0x04, 0x00,
  0x0e, 0x00, 0x00, 0x00, 0x03, 0x00, 0x00, 0x00, 0x03, 0x00, 0x00, 0x00,
  0x03, 0x00, 0x00, 0x00, 0x03, 0x00, 0x00, 0x00, 0x00, 0x00, 0x00, 0x01,
  0x01, 0x00, 0x00, 0x00, 0x0b, 0x00, 0x00, 0x00, 0x01, 0x00, 0x00, 0x00,
  0x0a, 0x00, 0x00, 0x00, 0x2c, 0xff, 0xff, 0xff, 0x11, 0x00, 0x00, 0x00,
  0x00, 0x00, 0x00, 0x11, 0x01, 0x00, 0x00, 0x00, 0x10, 0xd4, 0xff, 0xff,
  0x14, 0x00, 0x00, 0x00, 0x0c, 0x00, 0x00, 0x00, 0x20, 0x00, 0x00, 0x00,
  0x58, 0x00, 0x00, 0x00, 0x40, 0x00, 0x00, 0x00, 0x04, 0x00, 0x00, 0x00,
  0x01, 0x00, 0x00, 0x00, 0x15, 0x00, 0x00, 0x00, 0x01, 0x00, 0x00, 0x00,
  0x08, 0x00, 0x00, 0x00, 0x20, 0x00, 0x00, 0x00, 0x73, 0x65, 0x71, 0x75,
  0x65, 0x6e, 0x74, 0x69, 0x61, 0x6c, 0x2f, 0x6d, 0x61, 0x78, 0x5f, 0x70,
  0x6f, 0x6f, 0x6c, 0x69, 0x6e, 0x67, 0x32, 0x64, 0x2f, 0x4d, 0x61, 0x78,
  0x50, 0x6f, 0x6f, 0x6c, 0x00, 0x00, 0x00, 0x00, 0x04, 0x00, 0x00, 0x00,
  0xff, 0xff, 0xff, 0xff, 0x15, 0x00, 0x00, 0x00, 0x01, 0x00, 0x00, 0x00,
  0x08, 0x00, 0x00, 0x00, 0x1c, 0xd5, 0xff, 0xff, 0x00, 0x00, 0x0e, 0x00,
  0x14, 0x00, 0x00, 0x00, 0x08, 0x00, 0x0c, 0x00, 0x07, 0x00, 0x10, 0x00,
  0x0e, 0x00, 0x00, 0x00, 0x00, 0x00, 0x00, 0x01, 0x30, 0x00, 0x00, 0x00,
  0x24, 0x00, 0x00, 0x00, 0x10, 0x00, 0x00, 0x00, 0x0c, 0x00, 0x10, 0x00,
  0x00, 0x00, 0x04, 0x00, 0x08, 0x00, 0x0f, 0x00, 0x0c, 0x00, 0x00, 0x00,
  0x01, 0x00, 0x00, 0x00, 0x01, 0x00, 0x00, 0x00, 0x00, 0x00, 0x00, 0x01,
  0x01, 0x00, 0x00, 0x00, 0x0a, 0x00, 0x00, 0x00, 0x03, 0x00, 0x00, 0x00,
  0x00, 0x00, 0x00, 0x00, 0x08, 0x00, 0x00, 0x00, 0x01, 0x00, 0x00, 0x00,
  0x0c, 0x00, 0x10, 0x00, 0x0b, 0x00, 0x00, 0x00, 0x0c, 0x00, 0x04, 0x00,
  0x0c, 0x00, 0x00, 0x00, 0x03, 0x00, 0x00, 0x00, 0x00, 0x00, 0x00, 0x03,
  0x01, 0x00, 0x00, 0x00, 0xf0, 0xd4, 0xff, 0xff, 0x14, 0x00, 0x00, 0x00,
  0x0b, 0x00, 0x00, 0x00, 0x20, 0x00, 0x00, 0x00, 0xb0, 0x00, 0x00, 0x00,
  0x98, 0x00, 0x00, 0x00, 0x04, 0x00, 0x00, 0x00, 0x01, 0x00, 0x00, 0x00,
  0x40, 0x00, 0x00, 0x00, 0x03, 0x00, 0x00, 0x00, 0x08, 0x00, 0x00, 0x00,
  0x7b, 0x00, 0x00, 0x00, 0x73, 0x65, 0x71, 0x75, 0x65, 0x6e, 0x74, 0x69,
  0x61, 0x6c, 0x2f, 0x63, 0x6f, 0x6e, 0x76, 0x32, 0x64, 0x2f, 0x52, 0x65,
  0x6c, 0x75, 0x3b, 0x73, 0x65, 0x71, 0x75, 0x65, 0x6e, 0x74, 0x69, 0x61,
  0x6c, 0x2f, 0x63, 0x6f, 0x6e, 0x76, 0x32, 0x64, 0x2f, 0x42, 0x69, 0x61,
  0x73, 0x41, 0x64, 0x64, 0x3b, 0x73, 0x65, 0x71, 0x75, 0x65, 0x6e, 0x74,
  0x69, 0x61, 0x6c, 0x2f, 0x63, 0x6f, 0x6e, 0x76, 0x32, 0x64, 0x2f, 0x43,
  0x6f, 0x6e, 0x76, 0x32, 0x44, 0x3b, 0x73, 0x65, 0x71, 0x75, 0x65, 0x6e,
  0x74, 0x69, 0x61, 0x6c, 0x2f, 0x63, 0x6f, 0x6e, 0x76, 0x32, 0x64, 0x2f,
  0x42, 0x69, 0x61, 0x73, 0x41, 0x64, 0x64, 0x2f, 0x52, 0x65, 0x61, 0x64,
  0x56, 0x61, 0x72, 0x69, 0x61, 0x62, 0x6c, 0x65, 0x4f, 0x70, 0x2f, 0x72,
  0x65, 0x73, 0x6f, 0x75, 0x72, 0x63, 0x65, 0x00, 0x04, 0x00, 0x00, 0x00,
  0xff, 0xff, 0xff, 0xff, 0x40, 0x00, 0x00, 0x00, 0x03, 0x00, 0x00, 0x00,
  0x08, 0x00, 0x00, 0x00, 0x44, 0xd5, 0xff, 0xff, 0x4e, 0xd6, 0xff, 0xff,
  0x04, 0x00, 0x00, 0x00, 0x00, 0x08, 0x00, 0x00, 0x4e, 0x5b, 0x15, 0xbe,
  0xa0, 0x39, 0x23, 0xbc, 0xa2, 0x1c, 0x85, 0x3e, 0xa6, 0x19, 0xb6, 0xbd,
  0xc7, 0x79, 0xf8, 0xbd, 0x6b, 0xda, 0x69, 0xbc, 0xfb, 0x9d, 0x65, 0xbe,
  0x51, 0x44, 0x94, 0xbe, 0x60, 0x12, 0x8e, 0xbd, 0x81, 0x9f, 0xa5, 0xbd,
  0x4d, 0xe4, 0xe8, 0xbd, 0xd9, 0x19, 0x01, 0xbd, 0x4c, 0x9e, 0x29, 0xbe,
  0xda, 0x9d, 0x96, 0xbc, 0xfb, 0xf1, 0xbd, 0xbd, 0x3f, 0xe1, 0x48, 0xbe,
  0x48, 0x85, 0x6a, 0x3d, 0x5a, 0x6b, 0x63, 0x3d, 0x10, 0x13, 0xf0, 0x3d,
  0xeb, 0xad, 0x5c, 0x3c, 0xc2, 0x24, 0xa9, 0x3d, 0x70, 0x11, 0x34, 0xbc,
  0x6b, 0x4c, 0x24, 0xbe, 0x62, 0x5f, 0x6d, 0xbe, 0x2f, 0x06, 0x27, 0xbe,
  0x23, 0x73, 0xe7, 0xbd, 0x9a, 0x2b, 0x88, 0x3e, 0x98, 0x34, 0x2b, 0xbe,
  0x1b, 0xab, 0x25, 0x3e, 0x46, 0x05, 0xfd, 0x3b, 0x9a, 0xf0, 0x95, 0xbc,
  0x4d, 0xf2, 0x74, 0xbe, 0xd8, 0x68, 0x47, 0xbe, 0xea, 0xb9, 0x23, 0xbe,
  0xd8, 0x2f, 0x37, 0xbe, 0x7e, 0x6c, 0x33, 0xbe, 0xa0, 0x34, 0x22, 0xbd,
  0x51, 0xc4, 0x91, 0xbe, 0xcb, 0x0b, 0x19, 0x3e, 0x59, 0x60, 0x92, 0xbe,
  0x62, 0x1a, 0xb8, 0x3e, 0x8a, 0x66, 0x4e, 0xbe, 0x40, 0xc2, 0x07, 0xbe,
  0x7c, 0xc2, 0xb1, 0xbd, 0x33, 0x19, 0x30, 0xbd, 0x67, 0x5f, 0x65, 0xbe,
  0x38, 0x77, 0x6b, 0x3d, 0xe1, 0x6b, 0xb4, 0xbe, 0x2b, 0xc2, 0xcb, 0x3e,
  0x4f, 0x3c, 0x15, 0xbe, 0x17, 0x13, 0x35, 0x3d, 0x63, 0x34, 0x1d, 0x3e,
  0x3a, 0xe0, 0x94, 0xbc, 0x86, 0x58, 0x45, 0x3e, 0x33, 0xd9, 0xaa, 0x3d,
  0x8f, 0x7d, 0x20, 0xbe, 0xea, 0xc3, 0xa8, 0xbe, 0x26, 0x53, 0xee, 0x3d,
  0x89, 0xb6, 0x11, 0xbe, 0x25, 0x90, 0xc7, 0xbd, 0x07, 0x3e, 0x2a, 0x3e,
  0x0d, 0x45, 0x74, 0x3c, 0xf4, 0xa9, 0x70, 0xbe, 0x09, 0x47, 0x87, 0x3e,
  0x0f, 0x13, 0x93, 0x3d, 0xca, 0x59, 0x6d, 0xbe, 0xf5, 0x6b, 0x87, 0xbe,
  0xea, 0x2e, 0x0c, 0xbe, 0x78, 0x68, 0xdd, 0xbe, 0x61, 0xa4, 0xd9, 0xbd,
  0xa6, 0x8b, 0x1f, 0x3e, 0x64, 0xc6, 0xe1, 0x3e, 0x90, 0xc9, 0xc5, 0x3d,
  0x71, 0x4e, 0x36, 0x3d, 0x80, 0x48, 0xf8, 0x3c, 0x20, 0x7f, 0xfb, 0x3d,
  0x94, 0xb7, 0x73, 0xbd, 0xb1, 0xb7, 0x81, 0x3e, 0x37, 0x3e, 0x6b, 0xbe,
  0x79, 0x46, 0xeb, 0x3d, 0x0c, 0x21, 0xf0, 0xbd, 0x00, 0xad, 0x0c, 0x3e,
  0xf9, 0xc2, 0x68, 0xbd, 0x79, 0x2f, 0xc6, 0xbc, 0xc6, 0x5c, 0x6e, 0xbd,
  0x10, 0xb1, 0x2b, 0x3d, 0x57, 0x6f, 0x4f, 0xbe, 0x84, 0xb9, 0x95, 0xbe,
  0x6a, 0x1b, 0x7a, 0xbd, 0x23, 0x74, 0x32, 0x3e, 0xc4, 0xb1, 0x2e, 0x3d,
  0xda, 0xb2, 0xc1, 0xbd, 0x73, 0xf7, 0x17, 0x3e, 0x1c, 0x72, 0xd6, 0x3d,
  0x4b, 0x83, 0x24, 0xbc, 0x1e, 0x0e, 0xbf, 0xbe, 0xfa, 0x4d, 0x17, 0xbd,
  0x9c, 0xa1, 0x9a, 0xbd, 0xde, 0xf2, 0x9a, 0xbe, 0x48, 0x31, 0xbf, 0x3d,
  0x8e, 0xfb, 0xe2, 0xbd, 0xc3, 0x12, 0x8b, 0xbe, 0x82, 0xe1, 0x68, 0x3d,
  0x0b, 0x64, 0xa9, 0x3e, 0x52, 0xd0, 0x7c, 0x3e, 0x49, 0x52, 0x55, 0xbe,
  0x32, 0xa1, 0x47, 0xbe, 0x66, 0x0d, 0xb4, 0x3e, 0x9b, 0xae, 0xb2, 0xbd,
  0x8c, 0x82, 0xca, 0xbd, 0x9f, 0xc1, 0xba, 0x3e, 0x16, 0xb3, 0x65, 0x3e,
  0x1b, 0xcf, 0x86, 0x3e, 0x46, 0x12, 0xe6, 0xbd, 0x6e, 0x06, 0x27, 0xbe,
  0xf2, 0x06, 0x12, 0x3d, 0xae, 0xe6, 0x5f, 0xbe, 0x30, 0x99, 0xed, 0xbd,
  0x93, 0x00, 0x03, 0x3c, 0xff, 0xcb, 0xfd, 0x3e, 0xb9, 0x27, 0xf7, 0x3c,
  0xd9, 0x41, 0x69, 0xbe, 0xe2, 0x52, 0x42, 0xbe, 0xea, 0xf7, 0xbc, 0xbc,
  0x3c, 0x9a, 0x4e, 0xbe, 0x52, 0xef, 0x7a, 0xbe, 0x38, 0x8b, 0x88, 0x3e,
  0xc1, 0xe5, 0x44, 0x3c, 0x66, 0xbf, 0xae, 0xbb, 0xe5, 0x49, 0xed, 0xbd,
  0xc1, 0xcc, 0x56, 0xbe, 0x65, 0x92, 0x42, 0xbe, 0xa0, 0x68, 0xe7, 0xbd,
  0xbe, 0x0d, 0x9b, 0xbe, 0xb0, 0x30, 0x69, 0x3e, 0x73, 0xbd, 0xa2, 0xbe,
  0x65, 0x58, 0x4f, 0xbe, 0x32, 0x34, 0x1b, 0xbe, 0x1b, 0x53, 0x39, 0xbe,
  0xdd, 0xb9, 0x68, 0xbe, 0x96, 0xe8, 0x67, 0xbd, 0x7a, 0x49, 0xdf, 0xbd,
  0x58, 0x5e, 0x2e, 0xbd, 0xf0, 0x91, 0x9d, 0xbc, 0x3e, 0x5d, 0x67, 0xbe,
  0xa0, 0x7e, 0x80, 0xbd, 0x02, 0x71, 0xf8, 0xbd, 0x4e, 0x13, 0x7b, 0xbe,
  0x1a, 0x64, 0x6c, 0x3b, 0x9f, 0xdb, 0x5f, 0x3e, 0x1a, 0x44, 0xef, 0x3e,
  0x3b, 0x13, 0xa0, 0x3e, 0x15, 0x58, 0xe3, 0x3d, 0xff, 0x2b, 0x06, 0x3e,
  0x98, 0x86, 0x85, 0x3e, 0x13, 0x05, 0x29, 0xbe, 0x94, 0xf7, 0xd5, 0x3b,
  0x33, 0x42, 0xd7, 0x3e, 0x08, 0xd9, 0x14, 0x3d, 0x19, 0x0e, 0xad, 0x3e,
  0x66, 0xdb, 0x26, 0x3f, 0x04, 0x50, 0x1f, 0xbf, 0x77, 0xb4, 0xda, 0xbd,
  0xd4, 0x3e, 0xad, 0x3e, 0x08, 0xff, 0x14, 0xbf, 0x15, 0xa6, 0x01, 0x3e,
  0xc3, 0x09, 0x82, 0x3d, 0x5e, 0x04, 0x95, 0x3e, 0x0a, 0xa1, 0x7d, 0xbe,
  0x27, 0x84, 0xf1, 0xbd, 0x5d, 0xdb, 0x24, 0xbe, 0x3d, 0x81, 0x30, 0xbe,
  0x77, 0x96, 0xa1, 0xbe, 0x56, 0xc2, 0xe4, 0x3d, 0xba, 0x0c, 0xdc, 0xbd,
  0x7f, 0x71, 0xc4, 0x3d, 0x44, 0x7f, 0xde, 0x3d, 0x4c, 0xcd, 0x93, 0xbd,
  0x37, 0x91, 0xc8, 0xbd, 0xd5, 0xf2, 0x32, 0xbe, 0xca, 0x1f, 0xb8, 0x3c,
  0x06, 0x83, 0x01, 0xbe, 0x48, 0x6b, 0x4c, 0x3d, 0x08, 0x8c, 0xaa, 0x3d,
  0x27, 0x62, 0x5a, 0x3e, 0xbe, 0x57, 0x52, 0x3e, 0xf7, 0x8d, 0xcf, 0xbd,
  0x29, 0x87, 0x33, 0xbe, 0x8d, 0x4d, 0x20, 0xbe, 0x91, 0x45, 0xa1, 0xbe,
  0x7c, 0x35, 0x04, 0x3e, 0xd1, 0x5e, 0x43, 0xbd, 0x9c, 0x7d, 0x0b, 0xbc,
  0xd1, 0xba, 0xba, 0xbd, 0x5a, 0xfe, 0x6c, 0x3e, 0x3d, 0xfa, 0x6c, 0x3e,
  0xef, 0x00, 0xe4, 0xbd, 0xd7, 0x62, 0x0f, 0xbe, 0xae, 0x42, 0x8d, 0xbd,
  0xf9, 0x97, 0xd6, 0xbd, 0x67, 0xf1, 0x59, 0x3e, 0x60, 0xd3, 0x39, 0x3e,
  0x95, 0x7c, 0x6a, 0x3d, 0x90, 0x89, 0x9e, 0x3e, 0xb9, 0x77, 0x44, 0xbd,
  0x68, 0xc5, 0x0d, 0xbe, 0x88, 0xf4, 0x0a, 0xbd, 0x0a, 0xe1, 0xc0, 0x3d,
  0x6b, 0xde, 0xd6, 0xbc, 0x82, 0xeb, 0x02, 0x3e, 0x2d, 0xd9, 0x05, 0xbe,
  0x61, 0xd4, 0x6a, 0xbd, 0xb5, 0x46, 0x44, 0x3e, 0x34, 0xb9, 0x51, 0x3e,
  0xad, 0x52, 0x42, 0xbd, 0x86, 0xc7, 0x31, 0xbe, 0x9b, 0xea, 0xd3, 0xbc,
  0xcc, 0x33, 0x05, 0xbc, 0xec, 0xce, 0x47, 0x3d, 0xc3, 0x3e, 0x2f, 0x3d,
  0x4a, 0x0c, 0xe2, 0xbb, 0xd9, 0x08, 0xa8, 0x3d, 0xe8, 0x39, 0x36, 0xbd,
  0x4e, 0xb1, 0xbc, 0x3d, 0xb7, 0x08, 0xdf, 0x3e, 0xc7, 0xfa, 0x47, 0x3e,
  0x48, 0x28, 0xc3, 0x3e, 0xb2, 0x0a, 0x39, 0xbe, 0x33, 0x43, 0x94, 0xbd,
  0x65, 0xb3, 0xdb, 0xbc, 0x06, 0x6b, 0x09, 0x3f, 0x04, 0xb1, 0x4b, 0x3d,
  0x96, 0x7e, 0x78, 0x3b, 0xb3, 0xf9, 0xa4, 0xbd, 0x95, 0x47, 0xd6, 0xbd,
  0x0a, 0x70, 0x69, 0xbe, 0xea, 0x0b, 0xeb, 0xbd, 0xe4, 0x2d, 0x93, 0xbe,
  0xeb, 0xee, 0x53, 0x3c, 0x55, 0x3e, 0xbf, 0xbe, 0x43, 0xd7, 0x6b, 0x3d,
  0xde, 0x9c, 0xd3, 0xbd, 0xe6, 0xef, 0x05, 0xbe, 0x97, 0x8f, 0x98, 0xbd,
  0xe8, 0x75, 0xff, 0xbd, 0xf2, 0x0f, 0x51, 0xbe, 0x70, 0xbe, 0x13, 0x3e,
  0xe3, 0x66, 0x5b, 0xbe, 0x9a, 0xc8, 0xf3, 0xbc, 0xdf, 0xcf, 0x32, 0xbe,
  0xd2, 0xfc, 0x4d, 0xbe, 0x34, 0x82, 0x13, 0xbc, 0x08, 0x9b, 0x58, 0xbd,
  0xea, 0x71, 0xc4, 0xbd, 0xee, 0xb2, 0x8b, 0x3e, 0x2a, 0x20, 0xbd, 0xbc,
  0x51, 0x11, 0xa6, 0x3d, 0x92, 0xef, 0xcc, 0xbe, 0xf0, 0xed, 0x78, 0xbd,
  0xd6, 0xf6, 0xff, 0x3d, 0x59, 0x45, 0x89, 0x3d, 0xa5, 0xaf, 0x2c, 0xbf,
  0xe0, 0x66, 0x44, 0x3e, 0xe5, 0x88, 0x01, 0xbf, 0x54, 0xf8, 0x02, 0x3f,
  0x37, 0xbe, 0x75, 0xbf, 0x18, 0x0c, 0x02, 0xbd, 0x18, 0x54, 0x3f, 0x3e,
  0xf8, 0x8c, 0xfb, 0xbe, 0x33, 0x83, 0x7d, 0x3d, 0x20, 0xa4, 0x7f, 0xbb,
  0x62, 0x33, 0x70, 0x3e, 0xe1, 0x10, 0x49, 0xbf, 0x41, 0x0f, 0x39, 0xbe,
  0xed, 0x12, 0x86, 0xbd, 0x75, 0xe7, 0xe4, 0xbd, 0x19, 0x20, 0x9a, 0xbe,
  0xce, 0x98, 0x84, 0x3e, 0x0e, 0xf4, 0xab, 0x3d, 0xf5, 0x88, 0x7b, 0x3d,
  0x3b, 0x16, 0xf3, 0xbd, 0x34, 0x9d, 0x7c, 0x3e, 0x91, 0xe0, 0x41, 0xbd,
  0x81, 0xa5, 0x10, 0xbe, 0x8a, 0xe8, 0x00, 0xbb, 0x0e, 0x98, 0x01, 0xbd,
  0x7b, 0x54, 0x50, 0xbe, 0x0d, 0xc0, 0x96, 0x3d, 0xe4, 0xf1, 0x81, 0x3e,
  0x1b, 0xbb, 0xc8, 0xbd, 0x94, 0x36, 0xb9, 0xbd, 0x44, 0x51, 0xcd, 0x3c,
  0xba, 0x37, 0x70, 0xbc, 0x37, 0x7a, 0x05, 0xbd, 0x82, 0xdb, 0x01, 0x3f,
  0xb6, 0x6d, 0x6c, 0xbd, 0xe7, 0x78, 0xc0, 0x3d, 0x89, 0x94, 0x0d, 0xbe,
  0xa2, 0xa3, 0xae, 0x3d, 0x83, 0x41, 0xb3, 0xbd, 0xc4, 0xa6, 0xc8, 0xbc,
  0x0e, 0xc2, 0x3d, 0x3d, 0x13, 0xfd, 0x74, 0xbd, 0xc7, 0xd4, 0xc8, 0x3e,
  0x23, 0x8f, 0x8e, 0xbe, 0x50, 0x37, 0x6e, 0xbe, 0x38, 0xb6, 0x04, 0xbd,
  0xd1, 0x7d, 0x04, 0xbd, 0xfd, 0xaf, 0x21, 0xbe, 0x67, 0xf2, 0x25, 0xbd,
  0xf7, 0xc9, 0x1d, 0xbf, 0x66, 0x5c, 0xd2, 0xbd, 0xd9, 0xb4, 0x12, 0xbd,
  0x38, 0xfa, 0xf1, 0xbd, 0x7f, 0xad, 0x45, 0xbc, 0xdc, 0x8d, 0x2d, 0xbd,
  0xc1, 0x01, 0x16, 0xbe, 0x31, 0x3e, 0x4c, 0xbd, 0x62, 0xc6, 0xca, 0xbe,
  0x61, 0x6b, 0x5a, 0xbf, 0xef, 0x88, 0xf8, 0xbd, 0x87, 0x01, 0x20, 0x3d,
  0x17, 0xad, 0x1d, 0xbe, 0x5c, 0xb6, 0x18, 0xbf, 0xa7, 0x20, 0xcf, 0x3b,
  0xff, 0xa0, 0x06, 0x3c, 0xef, 0x5c, 0xa1, 0xbd, 0x07, 0x44, 0xb5, 0x3b,
  0xb2, 0xa2, 0x65, 0x3e, 0xb6, 0x96, 0x25, 0xbd, 0x9d, 0x2c, 0x34, 0x3d,
  0x73, 0x37, 0x29, 0xbf, 0x2a, 0x09, 0xc4, 0xbc, 0x08, 0xf5, 0x41, 0xbc,
  0xd0, 0x87, 0x6d, 0x3e, 0xc1, 0xed, 0x77, 0x3e, 0x2b, 0xd2, 0x95, 0x3d,
  0x2e, 0x62, 0x55, 0xbc, 0xa7, 0xbf, 0x7c, 0x3c, 0x29, 0x94, 0x93, 0xbe,
  0x43, 0xb1, 0xe5, 0xbc, 0xdf, 0xfa, 0x62, 0x3e, 0x27, 0x71, 0x46, 0x3f,
  0xba, 0x14, 0x7e, 0xbd, 0x4f, 0x2d, 0x62, 0x3e, 0x56, 0x40, 0x9d, 0xbd,
  0x9a, 0x7e, 0xa4, 0xbd, 0xd9, 0x71, 0x3b, 0xbe, 0x32, 0x03, 0xb1, 0xbd,
  0x38, 0xb7, 0x7e, 0xbe, 0x54, 0x3c, 0x43, 0xbe, 0x77, 0xd5, 0xbb, 0xbe,
  0x60, 0x2b, 0x30, 0x3d, 0x77, 0xe8, 0x3f, 0x3e, 0xe6, 0x2a, 0xea, 0x3e,
  0x63, 0x63, 0x94, 0xbe, 0x1a, 0x58, 0x33, 0x3e, 0xbc, 0x93, 0x3f, 0xbd,
  0x60, 0x66, 0xd3, 0x3e, 0x24, 0xf1, 0x89, 0x3c, 0xce, 0x8c, 0x2c, 0x3d,
  0x05, 0xe2, 0x23, 0xbd, 0xf2, 0xb1, 0x97, 0xbd, 0x2b, 0x41, 0xa9, 0xbe,
  0x07, 0x53, 0x58, 0xbe, 0x33, 0x07, 0xd0, 0xbc, 0x4f, 0x8f, 0xa7, 0xba,
  0x85, 0x44, 0x26, 0xbe, 0x81, 0x8b, 0x6c, 0x3c, 0x43, 0x3c, 0x1b, 0xbe,
  0x7a, 0xcd, 0xed, 0xbd, 0xd1, 0xa3, 0x48, 0xbe, 0xe1, 0xdd, 0x8c, 0xbe,
  0xcc, 0xf6, 0x7c, 0xbe, 0xac, 0x56, 0x85, 0x3e, 0xa3, 0xd5, 0x4b, 0xbe,
  0x83, 0x05, 0x33, 0x3e, 0x32, 0xe4, 0x3f, 0xbe, 0xec, 0xaf, 0x35, 0xbe,
  0x1c, 0x32, 0x0f, 0xbe, 0x8c, 0xb9, 0x90, 0xbe, 0xa9, 0x61, 0x6e, 0xbe,
  0x18, 0x39, 0xe3, 0x3e, 0x56, 0xbb, 0x20, 0xbd, 0xc2, 0x66, 0xe3, 0xbe,
  0x9b, 0xf1, 0x3e, 0xbd, 0xb8, 0xca, 0xe0, 0xbd, 0x8e, 0x6a, 0xed, 0xbe,
  0x2c, 0x1d, 0x42, 0x3d, 0x22, 0x62, 0x03, 0xbe, 0x5a, 0xc6, 0x25, 0xbd,
  0xfb, 0xd0, 0x91, 0x3d, 0x87, 0x93, 0xce, 0xbe, 0x4d, 0x78, 0x92, 0x3d,
  0xe9, 0x8a, 0x11, 0xbd, 0x7c, 0x4f, 0xbd, 0xbe, 0x57, 0xc1, 0xb8, 0x3c,
  0xe5, 0x6d, 0x55, 0xbe, 0x4a, 0xe7, 0xbd, 0xbe, 0xc8, 0x91, 0xa3, 0xbe,
  0xb4, 0x97, 0x87, 0x3d, 0x64, 0x2b, 0x21, 0xbd, 0x77, 0xea, 0x7f, 0xbc,
  0x17, 0x96, 0x04, 0xbf, 0x95, 0xc1, 0x33, 0xbd, 0xea, 0x91, 0x61, 0xbe,
  0x9f, 0x09, 0x81, 0xbb, 0xcc, 0xd6, 0x11, 0xbe, 0x10, 0xa6, 0xb6, 0xbd,
  0x8f, 0xa2, 0xa6, 0x3d, 0xc8, 0x71, 0xdd, 0xbd, 0x45, 0x2c, 0x14, 0xbe,
  0xff, 0x94, 0x46, 0x3e, 0x0b, 0xd7, 0xa7, 0x3d, 0x9f, 0x11, 0xaa, 0x3e,
  0xbb, 0x80, 0x3b, 0x3e, 0x12, 0x44, 0x55, 0xbd, 0x5e, 0xe1, 0x21, 0xbe,
  0xd8, 0x25, 0xf9, 0xbd, 0x2d, 0xdd, 0x30, 0xbe, 0x91, 0xd6, 0x2b, 0xbd,
  0xba, 0x75, 0x86, 0xbd, 0xdc, 0xe6, 0x9f, 0x3d, 0x60, 0xfb, 0x34, 0xbd,
  0x3a, 0xff, 0x41, 0xbe, 0xe2, 0xbb, 0x4e, 0xbd, 0x22, 0xfd, 0x58, 0x3d,
  0xe8, 0xb6, 0x81, 0xbd, 0x22, 0x97, 0xf7, 0x3d, 0x65, 0xea, 0xa6, 0xbe,
  0x45, 0xb8, 0x88, 0xbe, 0x29, 0xb3, 0x62, 0xbd, 0x32, 0xe9, 0xc0, 0xba,
  0x8d, 0x10, 0x91, 0x3b, 0xef, 0xd1, 0x42, 0xbe, 0xd0, 0xd9, 0x96, 0x3d,
  0xd5, 0xec, 0x20, 0x3e, 0x57, 0x2f, 0xa4, 0xbe, 0xa6, 0xfe, 0x95, 0x3e,
  0x85, 0x2b, 0x2d, 0xbe, 0xb5, 0x2f, 0xd8, 0xbd, 0x7f, 0x1f, 0xb7, 0xbe,
  0xec, 0x09, 0x52, 0xbe, 0xf4, 0xc7, 0x2f, 0xbe, 0x8f, 0x85, 0x7a, 0xbe,
  0x81, 0x2a, 0x54, 0x3c, 0x3f, 0x0d, 0x4c, 0xbd, 0x4a, 0x39, 0xb7, 0xbd,
  0xee, 0x69, 0x4e, 0x3e, 0x20, 0xab, 0x93, 0x3c, 0x9b, 0xeb, 0x80, 0xbe,
  0x24, 0x87, 0x4d, 0xbe, 0x3b, 0x23, 0x3c, 0xbc, 0x3e, 0xfa, 0xaa, 0xbe,
  0x11, 0xfb, 0x68, 0x3d, 0x5a, 0x00, 0xd3, 0x3d, 0xb1, 0x08, 0x66, 0x3e,
  0x1f, 0x10, 0x85, 0xbe, 0x7f, 0x99, 0x02, 0x3d, 0x4a, 0xa1, 0x40, 0x3e,
  0xb8, 0xdb, 0x8d, 0xbe, 0xea, 0x22, 0x72, 0x3d, 0x27, 0x4d, 0x72, 0x3e,
  0xf5, 0x0e, 0xda, 0xbd, 0xc7, 0xb3, 0x12, 0xbc, 0x88, 0x72, 0xc9, 0xbe,
  0x11, 0xb5, 0xc8, 0xbd, 0x80, 0xf8, 0xdc, 0xbd, 0x60, 0x4d, 0x06, 0xbf,
  0x26, 0x34, 0x47, 0x3e, 0xe9, 0x37, 0x51, 0xba, 0xa6, 0x28, 0xea, 0xbc,
  0xe2, 0xbd, 0x90, 0x3e, 0xdd, 0x48, 0xcd, 0xbd, 0xe2, 0x19, 0xe9, 0xbd,
  0x98, 0x79, 0x81, 0x3c, 0x8a, 0xa3, 0x1e, 0xbe, 0x72, 0x66, 0x95, 0xbc,
  0x98, 0x86, 0x33, 0x3e, 0x14, 0xb2, 0x99, 0x3e, 0x8b, 0x8a, 0x09, 0x3e,
  0x1c, 0x78, 0x98, 0xbd, 0x2a, 0x4f, 0xbc, 0xbe, 0x51, 0xd7, 0x77, 0xbe,
  0x11, 0x11, 0x68, 0xbe, 0x0d, 0xee, 0x0a, 0x3e, 0x0c, 0x8a, 0x5d, 0x3b,
  0xd6, 0x46, 0x8f, 0xbc, 0x27, 0x14, 0x99, 0x3d, 0xbf, 0x05, 0x93, 0xbd,
  0x14, 0x49, 0x25, 0xbe, 0x90, 0x8e, 0xbd, 0xbd, 0xf1, 0x36, 0x7e, 0x3d,
  0x98, 0x8b, 0xcd, 0xbd, 0xc6, 0x28, 0x89, 0xbd, 0x52, 0x20, 0xa5, 0x3d,
  0x87, 0x2d, 0x21, 0xbe, 0x6b, 0x0b, 0x03, 0xbe, 0xef, 0x8e, 0xbe, 0xbd,
  0x9e, 0xe8, 0x94, 0xbe, 0x5f, 0x38, 0x55, 0x3e, 0xb7, 0x61, 0x0e, 0xbd,
  0x02, 0xd2, 0xc4, 0x3b, 0x8a, 0xc2, 0x3a, 0x3c, 0xbd, 0x34, 0xe8, 0xbd,
  0x1a, 0x23, 0x0b, 0xbc, 0x05, 0x37, 0x00, 0xbc, 0xae, 0x9b, 0xeb, 0xbd,
  0x30, 0xa1, 0xf7, 0x3d, 0x6a, 0x33, 0x93, 0xbd, 0xb7, 0x2a, 0xc4, 0x3a,
  0x6e, 0x04, 0xa6, 0x3d, 0x26, 0xde, 0xff, 0xff, 0x10, 0x00, 0x00, 0x00,
  0x0a, 0x00, 0x00, 0x00, 0x1c, 0x00, 0x00, 0x00, 0x38, 0x00, 0x00, 0x00,
  0x04, 0x00, 0x00, 0x00, 0x10, 0x00, 0x00, 0x00, 0x04, 0x00, 0x00, 0x00,
  0x01, 0x00, 0x00, 0x00, 0x08, 0x00, 0x00, 0x00, 0x1a, 0x00, 0x00, 0x00,
  0x73, 0x65, 0x71, 0x75, 0x65, 0x6e, 0x74, 0x69, 0x61, 0x6c, 0x2f, 0x63,
  0x6f, 0x6e, 0x76, 0x32, 0x64, 0x5f, 0x31, 0x2f, 0x43, 0x6f, 0x6e, 0x76,
  0x32, 0x44, 0x00, 0x00, 0x9c, 0xdd, 0xff, 0xff, 0xa6, 0xde, 0xff, 0xff,
  0x04, 0x00, 0x00, 0x00, 0x80, 0x01, 0x00, 0x00, 0x65, 0xba, 0xee, 0xbc,
  0x21, 0x88, 0x41, 0xbd, 0xe5, 0xc7, 0x0d, 0xbd, 0xd7, 0xe0, 0xa1, 0xbe,
  0xaf, 0xca, 0xe9, 0xbe, 0x7f, 0x69, 0x60, 0xbe, 0x5b, 0xb2, 0x2f, 0x3e,
  0x59, 0xa1, 0x6d, 0x3e, 0xfd, 0xc7, 0x51, 0x3c, 0x58, 0x77, 0x2a, 0x3e,
  0x8f, 0x2f, 0x89, 0x3e, 0x68, 0x0b, 0x78, 0x3e, 0xb8, 0x02, 0x84, 0xbd,
  0x98, 0xfa, 0x4b, 0xbe, 0xd7, 0x1b, 0x8e, 0xbc, 0x6d, 0xa3, 0x3d, 0xbd,
  0xfe, 0xea, 0x7e, 0xbd, 0x03, 0x68, 0x46, 0x3e, 0xb4, 0x92, 0x52, 0xbd,
  0x26, 0xbc, 0x51, 0xbd, 0xe8, 0x58, 0x1b, 0x3d, 0x0b, 0xfa, 0xdb, 0xbd,
  0xd6, 0x4d, 0x89, 0x3d, 0x7c, 0xa2, 0x59, 0x3d, 0x19, 0xc8, 0xc5, 0x3d,
  0x3c, 0x8b, 0x87, 0xbe, 0x67, 0xab, 0xf0, 0x3d, 0x3d, 0xfa, 0x31, 0xbd,
  0x67, 0xdd, 0x91, 0xbd, 0x7c, 0xf6, 0x2d, 0x3e, 0x02, 0x83, 0x05, 0xbe,
  0x6a, 0xc7, 0x05, 0x3e, 0x3b, 0x4e, 0xfa, 0x3d, 0xd4, 0x29, 0x3f, 0xbd,
  0x2c, 0x13, 0x36, 0x3e, 0x78, 0x16, 0xcd, 0x3c, 0xb4, 0x78, 0xa1, 0x3e,
  0x8e, 0x25, 0x3b, 0xbe, 0x96, 0xe8, 0x11, 0xbe, 0x07, 0x97, 0xdc, 0xbe,
  0x79, 0xdb, 0x0a, 0x3e, 0xdc, 0x6d, 0x9a, 0xbe, 0x44, 0x14, 0x07, 0x3f,
  0x2e, 0xaa, 0x55, 0x3e, 0x16, 0xe3, 0x6e, 0x3e, 0x00, 0x42, 0xa9, 0xbc,
  0x7d, 0x42, 0x8f, 0xbb, 0x73, 0x3b, 0x0a, 0x3e, 0x6e, 0x21, 0x12, 0xbe,
  0x47, 0xf5, 0xb0, 0xbc, 0x45, 0x97, 0xe1, 0xbd, 0x75, 0xb4, 0xc6, 0xbd,
  0x22, 0x4f, 0xb0, 0x3d, 0x0b, 0x7a, 0x52, 0xbd, 0xd2, 0xc6, 0x36, 0xbd,
  0x8a, 0x17, 0x83, 0x3d, 0x6f, 0x5b, 0xa1, 0xbd, 0xdb, 0xce, 0x0f, 0xbd,
  0x7d, 0x47, 0x34, 0xbc, 0xfc, 0xfd, 0x83, 0xbd, 0x4e, 0x0b, 0xa4, 0x3e,
  0x47, 0xac, 0x27, 0x3d, 0xb3, 0xb0, 0x42, 0x3d, 0x6c, 0x34, 0xa4, 0x3d,
  0xd2, 0x82, 0x92, 0x3d, 0x66, 0x90, 0xc9, 0x3d, 0xec, 0x23, 0xbe, 0xbd,
  0x14, 0x68, 0x72, 0x3c, 0xa7, 0x1a, 0xb2, 0x3d, 0x7c, 0x63, 0x9a, 0xbe,
  0x31, 0x87, 0x1e, 0xbe, 0xb1, 0x63, 0x39, 0xbc, 0xf7, 0xe0, 0x17, 0x3e,
  0x54, 0x9f, 0x26, 0xbe, 0x54, 0x22, 0xf4, 0x3d, 0x0b, 0x7a, 0xcd, 0x3d,
  0x2c, 0x3e, 0xc1, 0xbe, 0x9b, 0x18, 0x18, 0x3c, 0xcb, 0xf5, 0x55, 0xbd,
  0x2f, 0x1d, 0xc7, 0x3d, 0x2c, 0xfd, 0xce, 0x3b, 0x25, 0xc8, 0x30, 0xbe,
  0xf8, 0xb8, 0xeb, 0x3e, 0xa4, 0x7e, 0x04, 0xbe, 0x88, 0x8d, 0xf3, 0x3d,
  0x1c, 0x8b, 0x8d, 0x3d, 0x46, 0x54, 0x87, 0x3d, 0x4b, 0xa3, 0x8f, 0xbd,
  0x3f, 0x0b, 0xf4, 0x3e, 0x6d, 0xa0, 0x8d, 0x3e, 0x1c, 0xe3, 0x09, 0x3d,
  0xa1, 0x66, 0xb5, 0xbe, 0x32, 0xcd, 0xbc, 0xbd, 0x40, 0x88, 0x8a, 0xbd,
  0xb2, 0xe8, 0x81, 0xbe, 0x52, 0x5d, 0xa2, 0xbe, 0xfe, 0xdf, 0xff, 0xff,
  0x10, 0x00, 0x00, 0x00, 0x09, 0x00, 0x00, 0x00, 0x1c, 0x00, 0x00, 0x00,
  0x38, 0x00, 0x00, 0x00, 0x04, 0x00, 0x00, 0x00, 0x08, 0x00, 0x00, 0x00,
  0x04, 0x00, 0x00, 0x00, 0x03, 0x00, 0x00, 0x00, 0x01, 0x00, 0x00, 0x00,
  0x18, 0x00, 0x00, 0x00, 0x73, 0x65, 0x71, 0x75, 0x65, 0x6e, 0x74, 0x69,
  0x61, 0x6c, 0x2f, 0x63, 0x6f, 0x6e, 0x76, 0x32, 0x64, 0x2f, 0x43, 0x6f,
  0x6e, 0x76, 0x32, 0x44, 0x00, 0x00, 0x00, 0x00, 0x74, 0xdf, 0xff, 0xff,
  0x7e, 0xe0, 0xff, 0xff, 0x04, 0x00, 0x00, 0x00, 0xc0, 0x00, 0x00, 0x00,
  0x4a, 0x3b, 0xc4, 0x3d, 0x61, 0x2e, 0x41, 0x3d, 0x4d, 0x1f, 0xa2, 0x3e,
  0x1e, 0xf2, 0x0b, 0x3e, 0x39, 0x78, 0x91, 0x3e, 0x25, 0x99, 0x7d, 0xba,
  0x12, 0xb7, 0x6e, 0xbe, 0xc5, 0xeb, 0x12, 0x3f, 0xfe, 0x32, 0x0f, 0xbd,
  0x75, 0xa1, 0xe4, 0xbd, 0xe6, 0xf1, 0xa1, 0x3e, 0xca, 0x17, 0xb2, 0xbd,
  0x78, 0x17, 0x85, 0x3d, 0x4d, 0x04, 0x28, 0xbd, 0x0d, 0x30, 0x2e, 0xbe,
  0x00, 0xd8, 0xe5, 0xbe, 0xd8, 0x38, 0x01, 0x3e, 0xe3, 0x52, 0x86, 0x3d,
  0x4d, 0x96, 0x91, 0x3e, 0x85, 0x11, 0x76, 0x3e, 0xe5, 0x35, 0xb4, 0xbe,
  0x15, 0xf2, 0x8e, 0x3d, 0xff, 0xde, 0xe9, 0xbe, 0x36, 0x74, 0x29, 0xbe,
  0x20, 0x44, 0xab, 0xbc, 0x05, 0x3d, 0xca, 0xbe, 0x95, 0x99, 0x8d, 0x3e,
  0x63, 0x3e, 0x9c, 0x3e, 0x9d, 0x1b, 0xb7, 0xbe, 0xdf, 0xd2, 0xd0, 0xbe,
  0x13, 0xe6, 0x03, 0xbe, 0x48, 0xb7, 0xec, 0x3e, 0x91, 0xdb, 0x7c, 0x3d,
  0xae, 0x52, 0xef, 0x3d, 0x0c, 0x81, 0x88, 0x3e, 0xe3, 0x65, 0x20, 0x3e,
  0x3e, 0xa0, 0x04, 0xbf, 0x2c, 0x52, 0x0a, 0x3d, 0x44, 0x6d, 0x91, 0xbe,
  0xa8, 0x4d, 0xb3, 0x3e, 0x7a, 0xc6, 0xf9, 0x3c, 0x96, 0x87, 0xd0, 0xbc,
  0x8d, 0xee, 0x8b, 0x3e, 0xce, 0x01, 0x83, 0x3e, 0xb8, 0xe3, 0x90, 0x3c,
  0x76, 0x6d, 0xf7, 0x3b, 0x73, 0xaa, 0xcb, 0xbe, 0x06, 0xc0, 0xbc, 0xbe,
  0x16, 0xe1, 0xff, 0xff, 0x10, 0x00, 0x00, 0x00, 0x08, 0x00, 0x00, 0x00,
  0x14, 0x00, 0x00, 0x00, 0x30, 0x00, 0x00, 0x00, 0x02, 0x00, 0x00, 0x00,
  0x03, 0x00, 0x00, 0x00, 0x10, 0x00, 0x00, 0x00, 0x19, 0x00, 0x00, 0x00,
  0x73, 0x65, 0x71, 0x75, 0x65, 0x6e, 0x74, 0x69, 0x61, 0x6c, 0x2f, 0x64,
  0x65, 0x6e, 0x73, 0x65, 0x5f, 0x31, 0x2f, 0x4d, 0x61, 0x74, 0x4d, 0x75,
  0x6c, 0x00, 0x00, 0x00, 0x84, 0xe0, 0xff, 0xff, 0x8e, 0xe1, 0xff, 0xff,
  0x04, 0x00, 0x00, 0x00, 0x00, 0x1c, 0x00, 0x00, 0x64, 0x37, 0x34, 0xbe,
  0x03, 0x9d, 0x2d, 0x3e, 0xa7, 0x5c, 0x2b, 0x3d, 0x35, 0x4d, 0x14, 0x3e,
  0x5f, 0xf9, 0x42, 0x3d, 0xe3, 0xcb, 0x1a, 0x3e, 0xab, 0xf9, 0x9b, 0x3c,
  0x1e, 0xda, 0x84, 0xbc, 0x59, 0xd7, 0x1b, 0x3e, 0x68, 0xdd, 0xe8, 0x3e,
  0xef, 0xb8, 0xf7, 0x3c, 0xba, 0x9e, 0xc6, 0xbd, 0x79, 0x2e, 0xb8, 0xbd,
  0x6e, 0xcf, 0xce, 0x3e, 0xe6, 0xc2, 0x67, 0x3d, 0x69, 0xfc, 0xe4, 0x3b,
  0x71, 0x16, 0x62, 0xbc, 0xf2, 0x3a, 0x76, 0x3e, 0x54, 0x3e, 0x53, 0xbc,
  0x53, 0xb1, 0x66, 0xbe, 0x1c, 0xbe, 0x36, 0x3c, 0x6f, 0xca, 0xd5, 0x3d,
  0x22, 0x22, 0x88, 0xbc, 0x4b, 0xbc, 0x93, 0xbc, 0x96, 0x92, 0x04, 0xbc,
  0x85, 0x29, 0x53, 0xbe, 0x03, 0xea, 0x6e, 0x3e, 0x9d, 0x06, 0x71, 0xbd,
  0x53, 0xf0, 0x97, 0x3d, 0x8f, 0xd2, 0x0d, 0x3e, 0x3e, 0x31, 0xda, 0xbe,
  0xbb, 0x06, 0x8d, 0xbe, 0x5e, 0xec, 0x10, 0xbc, 0xf5, 0x54, 0xb7, 0xbe,
  0x1e, 0x9e, 0x24, 0xbd, 0x59, 0xf1, 0x8d, 0xbe, 0x0f, 0xe9, 0xb9, 0xbe,
  0x92, 0xd9, 0x74, 0xbe, 0x51, 0xdc, 0x45, 0xbc, 0xca, 0x2b, 0x0b, 0x3b,
  0x95, 0x8a, 0x96, 0xbe, 0xc0, 0x2b, 0x47, 0x3e, 0xde, 0x9e, 0x02, 0x3e,
  0xd8, 0x51, 0xa9, 0x3d, 0xc5, 0xb6, 0x9e, 0xbc, 0x8b, 0x10, 0xac, 0x3e,
  0x79, 0xd2, 0x33, 0xbe, 0xb6, 0xe5, 0xd7, 0xbe, 0xa3, 0xa6, 0x88, 0xbc,
  0x4c, 0xc8, 0xe0, 0xbe, 0x06, 0x0c, 0xe6, 0xbd, 0xf8, 0x90, 0xa4, 0xbe,
  0x8f, 0x00, 0x12, 0xbf, 0x89, 0xe9, 0xaf, 0xbe, 0x65, 0xbd, 0xb9, 0xbc,
  0xdc, 0x3d, 0x72, 0xbe, 0x00, 0x72, 0xd4, 0xbd, 0x23, 0x4f, 0x7d, 0xbd,
  0xc1, 0xac, 0x54, 0xbe, 0x4e, 0xba, 0xbc, 0xbd, 0x7e, 0xfa, 0x3d, 0xbd,
  0xf8, 0xd7, 0x20, 0x3f, 0x21, 0xdc, 0x04, 0x3b, 0x4a, 0xbc, 0x4b, 0xbe,
  0x0b, 0xc3, 0xb2, 0xbc, 0x52, 0x22, 0x9c, 0xbd, 0x43, 0xcf, 0xab, 0xbd,
  0xfa, 0x5a, 0x3c, 0xbe, 0xf0, 0x53, 0x99, 0xbd, 0x80, 0xa2, 0x26, 0xbe,
  0x4b, 0x8f, 0x33, 0xbd, 0x25, 0x9a, 0x59, 0xbd, 0x61, 0x37, 0x59, 0xbe,
  0x12, 0xa3, 0xe1, 0x3e, 0x1f, 0x6f, 0xcc, 0xbd, 0xb2, 0xfd, 0x26, 0xbd,
  0xfb, 0x49, 0x82, 0xbd, 0x4b, 0x5b, 0x7c, 0x3e, 0x4c, 0x91, 0x60, 0xbd,
  0x58, 0x22, 0xd7, 0xbe, 0x71, 0xf7, 0x11, 0x3c, 0x62, 0xb4, 0x81, 0x3e,
  0xbb, 0xae, 0x22, 0xbc, 0x77, 0x48, 0xc5, 0xbc, 0xc2, 0x21, 0x4e, 0x3d,
  0xf2, 0x25, 0xda, 0xbc, 0x09, 0x5c, 0x30, 0xbd, 0xfd, 0x76, 0x0a, 0xbe,
  0x8e, 0xad, 0x71, 0x3d, 0xce, 0x28, 0x62, 0x3e, 0x9a, 0x01, 0x4c, 0xbc,
  0x97, 0x3e, 0x67, 0xbc, 0x9c, 0x50, 0xf5, 0xbd, 0x39, 0xe1, 0xd8, 0x3e,
  0x25, 0x4f, 0xad, 0x3d, 0x0c, 0x51, 0xcd, 0xbe, 0xd8, 0x78, 0xe2, 0x3c,
  0x65, 0x8d, 0xc0, 0x3e, 0x66, 0xe1, 0x4d, 0x3d, 0x87, 0xef, 0xa4, 0xbc,
  0x27, 0xd9, 0x49, 0xbc, 0x02, 0x67, 0xad, 0x3d, 0x9d, 0x5c, 0xb2, 0xbc,
  0x72, 0x99, 0x9f, 0xbd, 0x5d, 0xa4, 0xe4, 0xbc, 0x00, 0x6b, 0x44, 0xbc,
  0xd8, 0xe4, 0x09, 0xbc, 0xb3, 0x8d, 0x97, 0xbd, 0x7c, 0x53, 0x23, 0xbd,
  0xb0, 0x4f, 0xd8, 0xbd, 0xa7, 0x07, 0xc4, 0x3b, 0x89, 0xdb, 0xf8, 0x3d,
  0xcd, 0x7f, 0xec, 0x3d, 0x42, 0xc8, 0xb3, 0xbe, 0x11, 0x7a, 0xb0, 0x3d,
  0xc5, 0xb6, 0x64, 0xbe, 0xaf, 0x34, 0x8c, 0xbe, 0x03, 0x41, 0xa2, 0xbe,
  0x0e, 0x4b, 0xc4, 0xbb, 0x38, 0x70, 0xf5, 0xbe, 0xe8, 0x54, 0x1d, 0xbf,
  0x5f, 0xd4, 0x81, 0xbf, 0xc7, 0x40, 0x46, 0xbf, 0xb3, 0x94, 0x81, 0xbe,
  0xde, 0x63, 0x12, 0x3e, 0x77, 0xf5, 0xeb, 0x3c, 0x05, 0x2f, 0x22, 0xbd,
  0x33, 0x8e, 0x0b, 0x3f, 0x7d, 0xd7, 0x25, 0x3d, 0x08, 0x97, 0xe2, 0xbd,
  0x0e, 0x4c, 0xd9, 0x3d, 0x05, 0xb6, 0xd2, 0x3e, 0x82, 0xdb, 0x3e, 0xbe,
  0xe6, 0xac, 0xc6, 0x3e, 0x6e, 0xf2, 0xba, 0x3d, 0x64, 0xf6, 0x1b, 0xbf,
  0xfc, 0x99, 0x1f, 0x3d, 0x16, 0xc4, 0x9f, 0xbe, 0x2c, 0x48, 0x9d, 0xbe,
  0xd5, 0xff, 0xd3, 0xbe, 0x46, 0x69, 0xb8, 0xbd, 0x6b, 0x08, 0x9d, 0x3d,
  0xa2, 0x9b, 0x36, 0x3e, 0x0a, 0xd0, 0x6f, 0x3e, 0x66, 0xb2, 0x73, 0x3d,
  0xed, 0x79, 0x10, 0xbe, 0x84, 0x4b, 0xb9, 0xbc, 0xc8, 0x62, 0x86, 0x3e,
  0x16, 0x02, 0x4c, 0xbe, 0x00, 0xfc, 0xdb, 0x3e, 0xac, 0x7a, 0x99, 0x3c,
  0x14, 0xba, 0x8e, 0x3c, 0x69, 0x96, 0x3a, 0x3e, 0x00, 0x96, 0xb2, 0x3c,
  0xf6, 0x8d, 0x8a, 0xbe, 0x85, 0xc0, 0x48, 0x3e, 0xa2, 0x70, 0x90, 0xbc,
  0xa4, 0x7b, 0xe6, 0x3e, 0x9f, 0x75, 0x8b, 0x3e, 0xee, 0xbb, 0xab, 0x3e,
  0x5f, 0x72, 0xb6, 0x3d, 0xc9, 0x75, 0x05, 0xbe, 0xcb, 0x30, 0x62, 0x3d,
  0x6e, 0xa9, 0xa4, 0x3e, 0x91, 0x38, 0xc1, 0x3b, 0xf0, 0x29, 0xf7, 0x3e,
  0x90, 0x26, 0x59, 0x3d, 0x9a, 0x50, 0x02, 0x3d, 0xbf, 0x95, 0x66, 0x3a,
  0x05, 0x95, 0x79, 0x3d, 0x56, 0x53, 0x45, 0x3c, 0x18, 0xb3, 0x34, 0xbd,
  0xef, 0x19, 0x65, 0xbb, 0xb0, 0x6f, 0x0a, 0x3e, 0xef, 0x2a, 0x85, 0x3e,
  0xd1, 0xbd, 0x9d, 0x3e, 0xd2, 0xa9, 0x29, 0x3d, 0x9a, 0x5e, 0x69, 0xbe,
  0x82, 0x87, 0x18, 0xbd, 0x20, 0xa3, 0xb0, 0x3e, 0xaa, 0xec, 0xf3, 0xbd,
  0xab, 0xc5, 0x48, 0x3e, 0x2a, 0x38, 0x4d, 0x3c, 0x1f, 0x66, 0xeb, 0xbd,
  0x93, 0x1d, 0x96, 0xbd, 0x99, 0xee, 0x65, 0x3c, 0xd1, 0xfb, 0x5e, 0xbe,
  0x3c, 0x15, 0xae, 0xbd, 0xec, 0x58, 0xef, 0x3c, 0xaf, 0x45, 0x4e, 0xbd,
  0x3e, 0x95, 0x9d, 0x3d, 0x77, 0xb5, 0x46, 0x3e, 0x96, 0x5b, 0xfe, 0x3d,
  0x0e, 0xe6, 0x96, 0xbe, 0xdd, 0xab, 0xaf, 0xbd, 0xea, 0x3c, 0xa9, 0x3e,
  0x13, 0x4d, 0x22, 0xbf, 0xaa, 0x59, 0x26, 0x3e, 0x07, 0x15, 0x6b, 0x3c,
  0x6d, 0x4d, 0x07, 0xbe, 0x7c, 0x0f, 0xdf, 0x3c, 0xdf, 0x0b, 0x66, 0x3d,
  0x22, 0xfe, 0xe2, 0xbe, 0x99, 0x1b, 0x9d, 0xbd, 0x87, 0xeb, 0xd1, 0xbd,
  0x40, 0x86, 0x90, 0xbb, 0xa9, 0x1a, 0x3b, 0xbd, 0x1b, 0x40, 0x8f, 0x3e,
  0x22, 0x24, 0x20, 0xbb, 0x57, 0x3f, 0x0b, 0xbf, 0xac, 0xea, 0xdf, 0xbd,
  0x23, 0x5e, 0xdb, 0xbc, 0x4d, 0x42, 0xb4, 0xbe, 0x9d, 0xed, 0x11, 0x3b,
  0x6a, 0xac, 0x75, 0x3b, 0x73, 0xb5, 0x13, 0xbe, 0x9e, 0x66, 0xa0, 0xbd,
  0x72, 0x88, 0x07, 0xbe, 0x28, 0xb7, 0xdf, 0x3b, 0xdc, 0x0e, 0xc5, 0xbb,
  0x52, 0x92, 0x56, 0x3c, 0xef, 0xa9, 0x6c, 0x3e, 0xc6, 0xde, 0x22, 0xbd,
  0x97, 0xa2, 0x34, 0xbc, 0xfb, 0x29, 0xb5, 0xbc, 0x36, 0x71, 0x33, 0x3c,
  0x26, 0xf6, 0xb4, 0xbc, 0xa2, 0x66, 0x9f, 0xbe, 0x11, 0x5b, 0x1d, 0x3d,
  0x7f, 0x11, 0x6e, 0xbe, 0x1f, 0xcf, 0xb0, 0x3c, 0xbf, 0xdd, 0x6f, 0x3e,
  0x28, 0x83, 0x8d, 0xbe, 0x19, 0x36, 0x96, 0x3e, 0x67, 0x68, 0x9a, 0x3e,
  0x13, 0xf1, 0xaf, 0x3e, 0x3f, 0x6d, 0x26, 0xbe, 0x50, 0x80, 0x79, 0x3e,
  0x04, 0x3e, 0xae, 0xbe, 0x50, 0x02, 0x3f, 0x3d, 0xdb, 0x87, 0x92, 0xbd,
  0x96, 0x9a, 0xfb, 0x3d, 0x9e, 0x6c, 0xb3, 0xbd, 0x5d, 0xd2, 0x87, 0xbe,
  0x7f, 0xa8, 0x65, 0x3e, 0xd4, 0x4c, 0xe0, 0xbe, 0x4a, 0x0e, 0x34, 0xbd,
  0xed, 0x03, 0x42, 0x3e, 0x51, 0xc1, 0x6a, 0xbd, 0x28, 0xdd, 0xb3, 0x3e,
  0x89, 0x73, 0x92, 0xbd, 0xce, 0x13, 0x8f, 0x3e, 0xe1, 0x15, 0x8c, 0xbd,
  0x08, 0x54, 0x1e, 0x3e, 0x79, 0xdd, 0x9d, 0x3c, 0x7e, 0x69, 0x50, 0xbd,
  0x70, 0x28, 0x27, 0xbe, 0xfc, 0x79, 0x17, 0x3f, 0x71, 0xc4, 0x52, 0x3c,
  0x7a, 0xe7, 0x59, 0xbe, 0xb7, 0x59, 0x95, 0x3e, 0x09, 0x26, 0x08, 0xbe,
  0xdd, 0xe0, 0xcb, 0xbc, 0x5b, 0x8e, 0x4d, 0x3e, 0x35, 0x1e, 0xd7, 0x3e,
  0x6d, 0x76, 0x48, 0xbe, 0x00, 0x9f, 0x86, 0x3d, 0xc5, 0x1c, 0xdc, 0x3d,
  0x11, 0x8e, 0x0d, 0xbd, 0x16, 0x7b, 0x5f, 0x3e, 0xb2, 0x9d, 0xb6, 0xbd,
  0x0d, 0x37, 0x9c, 0x3c, 0xae, 0x4c, 0xa6, 0xbd, 0x8a, 0x2c, 0x04, 0x3f,
  0xce, 0xb6, 0x0b, 0x3c, 0x2d, 0xa8, 0xcd, 0xbe, 0xae, 0x76, 0x70, 0x3e,
  0xa1, 0xe1, 0x49, 0xbe, 0x0c, 0x61, 0x60, 0xbc, 0xf4, 0x78, 0x66, 0x3e,
  0xe6, 0xcb, 0x41, 0x3e, 0xfb, 0x4b, 0x54, 0xbe, 0xe1, 0x5d, 0x22, 0x3e,
  0xb5, 0xd7, 0x18, 0x3d, 0xa0, 0xf9, 0x76, 0xbd, 0xd5, 0xef, 0xa7, 0x3e,
  0xe4, 0x38, 0x33, 0xbd, 0x46, 0x01, 0xc5, 0xbc, 0x44, 0xc1, 0xdc, 0xba,
  0x2a, 0x55, 0xe3, 0x3d, 0x68, 0x45, 0x91, 0x3d, 0x50, 0x06, 0x01, 0xbf,
  0x0b, 0x7b, 0xb2, 0x3d, 0xc5, 0x4d, 0xa4, 0xbe, 0xee, 0xda, 0xe4, 0xbc,
  0x99, 0xaf, 0xa7, 0x3e, 0xbf, 0x43, 0x81, 0xbe, 0x90, 0xc5, 0x22, 0x3e,
  0x10, 0xe9, 0x58, 0x3e, 0x32, 0x45, 0xcd, 0x3d, 0x7a, 0xd5, 0xeb, 0x3c,
  0xc8, 0x32, 0xa7, 0x3e, 0xa3, 0x44, 0x93, 0xbe, 0x7d, 0x7d, 0x41, 0xbc,
  0x44, 0xd3, 0x95, 0xbd, 0x3e, 0x32, 0x39, 0xbc, 0x24, 0xd9, 0x99, 0x39,
  0x06, 0xf9, 0xb7, 0xbe, 0x46, 0x49, 0x05, 0x3e, 0xd7, 0xcd, 0xfa, 0xbe,
  0x3c, 0x41, 0x7f, 0x3c, 0xfd, 0xaf, 0xef, 0x3e, 0x0d, 0xcb, 0xb1, 0xbe,
  0x17, 0x02, 0xf8, 0xbd, 0x69, 0x4f, 0xb4, 0x3e, 0xd6, 0x46, 0x84, 0x3e,
  0x69, 0xfa, 0x1d, 0x3e, 0xbb, 0x69, 0x47, 0xbd, 0xcd, 0x28, 0x8c, 0xbe,
  0xe9, 0xb9, 0x61, 0xbd, 0x22, 0x16, 0x02, 0x3d, 0xf3, 0xbb, 0x2e, 0xbe,
  0xd8, 0x13, 0xeb, 0xbc, 0x69, 0x76, 0x35, 0xbd, 0x68, 0x57, 0x23, 0x3e,
  0xd6, 0x49, 0x7a, 0xbe, 0xe8, 0x6b, 0x77, 0xbc, 0x34, 0xb9, 0xe9, 0x3d,
  0xe7, 0xa2, 0xbb, 0xbe, 0x1f, 0xc4, 0x46, 0x3e, 0x2c, 0x4e, 0xf9, 0x3b,
  0xce, 0xf4, 0x9c, 0x3d, 0x75, 0x2d, 0x2c, 0x3d, 0x38, 0xe9, 0x85, 0xbc,
  0x22, 0x9e, 0xf0, 0xbd, 0xa5, 0x91, 0x51, 0x3d, 0xf8, 0x38, 0x34, 0xbe,
  0x0c, 0x2d, 0x18, 0xbe, 0x37, 0xb0, 0xd8, 0xbe, 0xa3, 0xd7, 0xa6, 0xbd,
  0x05, 0xf5, 0xfa, 0xbe, 0x0a, 0xf6, 0x32, 0xbe, 0x7f, 0xc3, 0x26, 0xbe,
  0x07, 0xaf, 0xf5, 0xbd, 0xfa, 0xc7, 0x39, 0xbe, 0xb9, 0xfc, 0x97, 0xbe,
  0xee, 0x31, 0x14, 0xbe, 0xf1, 0xe2, 0x90, 0xbd, 0x6f, 0x08, 0xb5, 0xbe,
  0xe9, 0xf2, 0xc3, 0x3d, 0x55, 0x81, 0x87, 0xbe, 0xa1, 0x9f, 0xc3, 0xbe,
  0x53, 0xe8, 0x93, 0xbe, 0x75, 0x35, 0x6b, 0xbe, 0x41, 0xac, 0x65, 0xbe,
  0xf8, 0xe7, 0x2a, 0xbd, 0x12, 0xf1, 0xe2, 0xbc, 0xd2, 0x25, 0x04, 0xbe,
  0xc8, 0x82, 0x0d, 0xbe, 0xbc, 0xb0, 0xb5, 0xbd, 0x4b, 0xa1, 0x64, 0x3b,
  0x96, 0xad, 0x32, 0x3d, 0x43, 0xfa, 0xf7, 0x3d, 0x64, 0x93, 0x98, 0x3d,
  0xa4, 0xb8, 0xbb, 0xbe, 0x55, 0x5d, 0xed, 0x3d, 0x33, 0xc8, 0x12, 0xbe,
  0x72, 0xa2, 0x2b, 0xbd, 0xf3, 0x0b, 0x08, 0xbf, 0xfb, 0xa9, 0x7f, 0xbe,
  0x91, 0xae, 0x6c, 0xbe, 0x7d, 0xac, 0x2a, 0xbd, 0x19, 0x04, 0xb5, 0xbe,
  0x1e, 0xb8, 0x9b, 0xbd, 0xdd, 0x7b, 0x51, 0xbe, 0x6e, 0xb7, 0x9b, 0xbd,
  0x51, 0xe7, 0x3d, 0xbe, 0x8d, 0xe5, 0xba, 0xbc, 0x0d, 0x42, 0xa7, 0xbb,
  0xa2, 0x18, 0x5a, 0xbe, 0x2b, 0xb1, 0x63, 0xbe, 0xe5, 0x2e, 0x04, 0xbd,
  0x65, 0x08, 0x09, 0xbe, 0xa5, 0x32, 0xbf, 0xbd, 0x24, 0xa6, 0xc1, 0xbe,
  0x89, 0x03, 0xbb, 0xbd, 0x53, 0x83, 0xa8, 0xbd, 0x35, 0xb2, 0xb4, 0xbe,
  0xab, 0xc2, 0x07, 0xbf, 0xbe, 0xfd, 0x89, 0xbe, 0x89, 0x7a, 0x06, 0xbe,
  0x82, 0x9e, 0x79, 0xbe, 0x0e, 0xde, 0x9b, 0xbe, 0x2b, 0x35, 0x47, 0xbd,
  0xaa, 0xc2, 0x28, 0xbe, 0x0f, 0x6d, 0xe7, 0xbe, 0x9d, 0x29, 0xb4, 0xbe,
  0x5c, 0x53, 0x69, 0x3c, 0x9d, 0xfa, 0x63, 0xbe, 0x31, 0x3f, 0x4c, 0xbe,
  0x95, 0x29, 0x72, 0x3d, 0x1f, 0x06, 0xd5, 0x3e, 0x51, 0x73, 0x51, 0x3e,
  0x8a, 0x3a, 0xaf, 0xbd, 0x91, 0x3c, 0x60, 0x3d, 0xc7, 0xaf, 0x8c, 0x3d,
  0xf3, 0x4b, 0x0e, 0xbe, 0x8e, 0xcf, 0xbf, 0xbe, 0x0b, 0xef, 0x9f, 0x3e,
  0x7d, 0x63, 0x97, 0xbd, 0xfc, 0x30, 0xb8, 0xbd, 0x7a, 0x0f, 0x93, 0xbe,
  0x19, 0x83, 0x63, 0xbe, 0x95, 0x42, 0x0f, 0xbe, 0x0f, 0x3f, 0xba, 0x3d,
  0x03, 0x94, 0x2f, 0xbe, 0xab, 0xa0, 0x4b, 0x3d, 0x2a, 0x70, 0x9c, 0x3e,
  0xb5, 0xbb, 0x85, 0x3e, 0x97, 0xa9, 0xe5, 0xbd, 0x98, 0x65, 0xc1, 0xbc,
  0xe4, 0x14, 0x7e, 0x3e, 0x58, 0x3a, 0x8a, 0xbc, 0x32, 0xf0, 0xa6, 0xbd,
  0x09, 0x18, 0xc3, 0x3e, 0x00, 0x0d, 0x49, 0x3e, 0x25, 0x9c, 0x90, 0xbc,
  0x2e, 0xa5, 0xf0, 0xbb, 0x8f, 0x17, 0xd5, 0xbd, 0x33, 0xa2, 0xfe, 0xbc,
  0xba, 0xfc, 0xf7, 0x3d, 0x58, 0x4b, 0x03, 0xbc, 0x6e, 0x51, 0xbe, 0x3e,
  0xab, 0x5a, 0x96, 0x3e, 0xf9, 0xa3, 0x3b, 0x3d, 0x4b, 0xbf, 0xf6, 0xbb,
  0xb9, 0x0d, 0xfc, 0x3d, 0x2b, 0x3c, 0xcc, 0xbb, 0x5e, 0x80, 0x0a, 0x3e,
  0xbd, 0x7b, 0x03, 0x3d, 0x91, 0x57, 0x1a, 0x3e, 0xb3, 0x6b, 0x02, 0x3d,
  0xfd, 0xdf, 0x22, 0xbd, 0x8f, 0x1d, 0x9d, 0x3c, 0xd6, 0x67, 0x89, 0x3e,
  0x62, 0x82, 0x9e, 0x3d, 0xba, 0xfe, 0x98, 0x3e, 0x94, 0xef, 0x7f, 0x3e,
  0x44, 0x89, 0xa8, 0x3d, 0x60, 0x4a, 0x24, 0xbd, 0x45, 0xb4, 0x9e, 0xbd,
  0x22, 0x55, 0x20, 0xbe, 0xf0, 0x4c, 0x74, 0xbe, 0xeb, 0x28, 0xe5, 0x3c,
  0xac, 0xbf, 0x88, 0xbd, 0xfe, 0x44, 0x07, 0xbe, 0xef, 0x2e, 0x59, 0xbe,
  0x88, 0x45, 0xd6, 0x3d, 0x5a, 0x64, 0x8a, 0x3d, 0x76, 0xbe, 0x43, 0xbc,
  0xca, 0xcf, 0xb9, 0xbc, 0x03, 0x4e, 0x06, 0x3f, 0x15, 0x8c, 0x7c, 0xbe,
  0x86, 0x89, 0x5e, 0xbd, 0x08, 0x8c, 0x82, 0xbe, 0x88, 0xb6, 0xcb, 0xbd,
  0xe7, 0x2b, 0xd8, 0xbd, 0xe9, 0x06, 0x86, 0xbe, 0x95, 0xe8, 0x82, 0x3d,
  0xe4, 0x19, 0x0d, 0xbd, 0xe1, 0x81, 0x98, 0xbe, 0x88, 0xd7, 0x89, 0xbe,
  0x68, 0xf6, 0x13, 0x3e, 0xed, 0xea, 0x78, 0x3f, 0x0e, 0xbd, 0x3f, 0xbe,
  0x19, 0x29, 0x95, 0x3d, 0x75, 0x14, 0xa8, 0xbc, 0xb9, 0x4b, 0xda, 0x3e,
  0xa1, 0xb3, 0x06, 0x3e, 0x51, 0xe2, 0x17, 0x3e, 0xc9, 0x17, 0x2c, 0x3d,
  0x23, 0xd8, 0x61, 0xbe, 0x99, 0x7c, 0x1d, 0x3a, 0x22, 0x78, 0xb4, 0xbd,
  0xa1, 0xfb, 0xe4, 0xbd, 0xc9, 0x47, 0x9b, 0xbd, 0x00, 0x87, 0x9b, 0xbe,
  0x49, 0xa6, 0x57, 0x3d, 0x0b, 0xe1, 0x47, 0xbe, 0xf6, 0xcd, 0x35, 0x3f,
  0xd8, 0x3c, 0x53, 0x3c, 0x58, 0x35, 0x06, 0x3d, 0x78, 0x9e, 0x87, 0x3d,
  0x09, 0xb3, 0xb1, 0x3e, 0x99, 0xd2, 0x72, 0x3d, 0x4c, 0x6a, 0x46, 0xbe,
  0x97, 0x46, 0xb1, 0xbd, 0x57, 0xd9, 0x8a, 0x3c, 0xf4, 0x91, 0xed, 0x3b,
  0x6c, 0x4d, 0x91, 0xbe, 0x56, 0x6f, 0x08, 0xbe, 0x54, 0xfe, 0xe7, 0xbd,
  0xe3, 0xbc, 0x19, 0xbe, 0x44, 0xe4, 0x6f, 0xbe, 0x54, 0x91, 0x55, 0xbe,
  0x85, 0x89, 0x1d, 0x3f, 0x0d, 0x74, 0x07, 0xbe, 0x31, 0x88, 0x44, 0xbe,
  0x1d, 0x0e, 0xa6, 0x3c, 0x79, 0x74, 0xdb, 0x3e, 0x15, 0x5f, 0x5f, 0xbe,
  0x20, 0x2c, 0xfe, 0xbd, 0x39, 0x9b, 0xdc, 0x3c, 0xd1, 0x4e, 0x93, 0xbd,
  0x73, 0x04, 0xec, 0xbd, 0x4b, 0x83, 0x42, 0x3d, 0x94, 0x67, 0x42, 0xbe,
  0x40, 0xcd, 0x8f, 0x3d, 0x8c, 0x68, 0xc2, 0xbe, 0xd7, 0xdf, 0x5e, 0xbe,
  0xf1, 0xf0, 0x95, 0x3d, 0x11, 0x56, 0xa8, 0x3f, 0x61, 0x6e, 0x95, 0x3d,
  0x9c, 0x66, 0x73, 0xbe, 0x11, 0xdd, 0x83, 0xbd, 0x2a, 0xa6, 0xc1, 0x3e,
  0x14, 0x6b, 0x7c, 0xbe, 0x6e, 0xeb, 0x1a, 0xbe, 0x9f, 0x71, 0xce, 0x3b,
  0x1f, 0x6f, 0x0d, 0xbe, 0xd5, 0x35, 0x07, 0xbe, 0xa4, 0xc9, 0xe6, 0xbd,
  0x0e, 0x30, 0x63, 0xbd, 0xa6, 0x87, 0xd7, 0xbd, 0xeb, 0xfa, 0x93, 0xbe,
  0xc6, 0x5b, 0x98, 0x3d, 0x39, 0xa8, 0x07, 0xbd, 0xf9, 0x5d, 0x1e, 0x3f,
  0x6f, 0x9e, 0x55, 0xbe, 0xca, 0x83, 0x11, 0xbe, 0x94, 0x9e, 0x09, 0x3e,
  0x73, 0x47, 0x04, 0x3f, 0x67, 0xf1, 0x6f, 0x3c, 0x5d, 0x95, 0x6a, 0x3d,
  0xa2, 0x69, 0xa6, 0x3d, 0xbc, 0x35, 0x1d, 0xbd, 0x2e, 0xae, 0x34, 0xbe,
  0xec, 0xdf, 0x18, 0xbe, 0x34, 0xee, 0x08, 0xbc, 0xb5, 0xee, 0x00, 0x3d,
  0xcf, 0xaa, 0x4e, 0xbd, 0xf5, 0x3d, 0x27, 0xbd, 0x79, 0x80, 0x9e, 0xbd,
  0x0f, 0x8a, 0xd7, 0x3d, 0x08, 0x74, 0x15, 0xbe, 0x23, 0xe2, 0xc6, 0xbd,
  0x1f, 0x17, 0x9d, 0xbe, 0xd9, 0x6b, 0x04, 0x3f, 0xeb, 0xf5, 0x35, 0xbc,
  0x4f, 0x96, 0x1f, 0xbd, 0x06, 0xd4, 0x8f, 0xbb, 0x88, 0xcd, 0x08, 0x3e,
  0x58, 0x3d, 0x98, 0xbe, 0x6e, 0xaa, 0xee, 0xbd, 0xda, 0xcc, 0x82, 0xbe,
  0xc8, 0x32, 0x47, 0xbd, 0x05, 0x55, 0xf9, 0xbd, 0x13, 0x29, 0x3c, 0xbe,
  0x22, 0x84, 0xb8, 0xbc, 0xd8, 0x5a, 0xbc, 0x3d, 0x24, 0x42, 0x62, 0xbd,
  0x6e, 0x58, 0x06, 0xbc, 0x8a, 0x9c, 0x60, 0xbb, 0x62, 0xfd, 0x85, 0x3c,
  0x3e, 0x81, 0x2d, 0x3e, 0x3e, 0xf1, 0x19, 0xbd, 0xe1, 0x17, 0xbf, 0xbd,
  0x4a, 0xc3, 0x9a, 0xbd, 0x17, 0x8b, 0xb7, 0xbe, 0x78, 0x43, 0x40, 0x3d,
  0x8f, 0x95, 0xe1, 0xbd, 0x95, 0xf9, 0xea, 0xbd, 0x2d, 0xc8, 0x29, 0xbe,
  0x47, 0x4f, 0xb1, 0xbd, 0xaf, 0xac, 0x0c, 0x3e, 0xf1, 0x45, 0x3d, 0xbd,
  0x12, 0x26, 0x09, 0xbe, 0xb0, 0xdb, 0x27, 0xbe, 0xc9, 0x27, 0x65, 0xbe,
  0x0f, 0x5a, 0x36, 0xbe, 0xb5, 0x05, 0x4b, 0xbe, 0x98, 0x68, 0x53, 0xbd,
  0x55, 0x9c, 0xe2, 0xbe, 0xc5, 0x93, 0x87, 0xbe, 0x1f, 0x8b, 0x11, 0xbe,
  0x09, 0xea, 0xd0, 0xbd, 0x2c, 0x31, 0x6e, 0xbe, 0x2c, 0x5b, 0xbb, 0xbd,
  0x09, 0x27, 0x20, 0xbe, 0xb5, 0x0e, 0x64, 0xbe, 0x32, 0xc8, 0xa9, 0x3d,
  0x65, 0x12, 0x03, 0xbd, 0x0e, 0x7d, 0x8a, 0xbe, 0x74, 0xe9, 0x03, 0x3d,
  0x85, 0x97, 0x99, 0xbe, 0xff, 0xd3, 0xd2, 0xbc, 0x6f, 0x67, 0x10, 0x3c,
  0xc1, 0x9e, 0xcb, 0x3c, 0xe0, 0x98, 0xa2, 0xbe, 0x98, 0x65, 0x87, 0xbe,
  0xe1, 0x0a, 0x37, 0xbe, 0x22, 0x3c, 0x5d, 0xbe, 0xcd, 0x7e, 0xea, 0xbe,
  0xf7, 0xec, 0x5c, 0x3d, 0x86, 0x14, 0xe9, 0xbd, 0xb1, 0x1f, 0x84, 0x3d,
  0x01, 0xdd, 0xef, 0xbd, 0x84, 0xa1, 0x34, 0xbd, 0xb2, 0xdb, 0x3c, 0xbd,
  0x45, 0x8e, 0x24, 0xbe, 0xb6, 0x5f, 0xbe, 0xbe, 0x71, 0x4f, 0x2c, 0xbe,
  0x77, 0xac, 0x82, 0xbe, 0x2e, 0xc4, 0xf3, 0xbd, 0xff, 0x8f, 0x81, 0xbe,
  0x90, 0xfb, 0x34, 0x3e, 0x41, 0x03, 0x89, 0xbe, 0x77, 0x06, 0x9a, 0xbd,
  0xe0, 0x04, 0x7f, 0xbc, 0x8e, 0x36, 0xf5, 0xbd, 0xea, 0x04, 0x09, 0xbe,
  0xc8, 0x48, 0x00, 0xbe, 0x4c, 0x3e, 0xe0, 0x3d, 0x46, 0x79, 0x87, 0xbe,
  0x1f, 0x35, 0xc3, 0xbb, 0xd2, 0x84, 0xb5, 0xbb, 0x97, 0x02, 0x46, 0xbe,
  0x76, 0x04, 0x02, 0x3d, 0x4e, 0xf8, 0xe1, 0x3d, 0x25, 0x1d, 0xfa, 0x3d,
  0x63, 0x32, 0x29, 0x3e, 0xc1, 0xca, 0x73, 0x3e, 0x93, 0xe9, 0x8b, 0x3e,
  0x32, 0xad, 0xbe, 0x3d, 0x91, 0x3d, 0x91, 0xbb, 0xca, 0x12, 0x79, 0x3e,
  0x3c, 0xc3, 0x2b, 0x3e, 0x90, 0xcb, 0x0a, 0xbe, 0xbe, 0xfe, 0x98, 0x3e,
  0x8a, 0xc7, 0xbd, 0x3d, 0xf5, 0xf6, 0x7a, 0xbd, 0x2a, 0x86, 0xd8, 0xbc,
  0x80, 0x65, 0x20, 0xbe, 0x32, 0xaf, 0x1f, 0xbe, 0x3a, 0xc4, 0x8c, 0x3c,
  0xf9, 0x51, 0x10, 0x3e, 0x9f, 0x2a, 0x97, 0xbd, 0x8a, 0x2d, 0x8d, 0x3e,
  0x3d, 0x99, 0xfc, 0x3d, 0x5b, 0x78, 0x55, 0xbd, 0x6c, 0x20, 0x03, 0x3c,
  0xf2, 0x05, 0x62, 0x3e, 0x66, 0x7f, 0xbb, 0x3c, 0x0f, 0x92, 0x30, 0x3d,
  0x33, 0x6e, 0x27, 0xbe, 0x91, 0x99, 0x1a, 0xbd, 0x85, 0xc0, 0x92, 0x3d,
  0x0d, 0xde, 0x73, 0x3b, 0x42, 0xff, 0x36, 0x3e, 0x44, 0x03, 0x45, 0xbe,
  0xbe, 0x47, 0x50, 0x3e, 0x85, 0xd5, 0x28, 0x3e, 0xbc, 0x8a, 0x47, 0xbe,
  0xe8, 0x87, 0xf9, 0xbd, 0x51, 0x2b, 0x4f, 0xbe, 0x30, 0xa4, 0xe6, 0xbd,
  0x14, 0xf8, 0x25, 0xbd, 0x10, 0xf9, 0xd2, 0x3d, 0x27, 0xf2, 0xbc, 0xbc,
  0xd9, 0xd1, 0x7b, 0xbc, 0x85, 0x45, 0x3d, 0xbd, 0x0c, 0x38, 0x17, 0xbe,
  0x8a, 0x7b, 0xa7, 0xbd, 0x82, 0x42, 0x4e, 0x3d, 0xec, 0x30, 0x66, 0xbe,
  0xcc, 0xd6, 0x2e, 0x3d, 0x08, 0x5b, 0x9d, 0xbd, 0x2c, 0xb8, 0xac, 0xbd,
  0x86, 0x2c, 0xe7, 0x3d, 0x3d, 0x0d, 0x57, 0xbe, 0x13, 0x27, 0xba, 0x3d,
  0xaa, 0x54, 0x45, 0xbd, 0xf4, 0x00, 0x0d, 0x3e, 0xa4, 0x98, 0xf3, 0x3d,
  0xb4, 0x54, 0xc3, 0xbe, 0x9b, 0x70, 0x0b, 0x3d, 0x84, 0x93, 0x58, 0x3b,
  0x5f, 0x55, 0x11, 0xbe, 0xa9, 0x22, 0x87, 0x3d, 0xaa, 0x91, 0x97, 0xbe,
  0x76, 0x44, 0xad, 0xbe, 0x2d, 0x17, 0xf9, 0x3d, 0x78, 0x69, 0x22, 0x3e,
  0xeb, 0xb7, 0x24, 0xbe, 0x3c, 0xe2, 0xcc, 0xbd, 0x1b, 0x17, 0xb3, 0x3d,
  0x56, 0x23, 0xa1, 0xbe, 0x2e, 0x45, 0x9c, 0x3c, 0x76, 0x31, 0xdd, 0x3d,
  0x28, 0xee, 0x2e, 0x3e, 0x1f, 0x79, 0xba, 0xbd, 0x84, 0xc8, 0x05, 0xbe,
  0xe5, 0x8e, 0x2e, 0xbd, 0x25, 0xe4, 0x62, 0xbe, 0x6c, 0xbe, 0x36, 0xbd,
  0x7c, 0x63, 0x15, 0xbd, 0x3f, 0x26, 0xbe, 0xbd, 0xb1, 0xe0, 0x3e, 0xbe,
  0x47, 0x3d, 0x75, 0xbe, 0xa0, 0x4c, 0x0f, 0xbe, 0x57, 0x04, 0x49, 0xbe,
  0x0b, 0x89, 0xed, 0xbd, 0xd8, 0xd0, 0xef, 0xbd, 0xbd, 0x85, 0x9a, 0x3d,
  0xe5, 0xac, 0x49, 0x3d, 0x9c, 0x08, 0xc0, 0xbb, 0xb2, 0xec, 0x39, 0xbb,
  0x88, 0xcf, 0x00, 0xbd, 0x38, 0xed, 0x7f, 0xbe, 0x9f, 0x34, 0x42, 0x3e,
  0xdf, 0x59, 0xc1, 0xbc, 0xdb, 0xd2, 0x5f, 0x3d, 0x90, 0xdc, 0x02, 0xbe,
  0x0c, 0x8a, 0x83, 0xbd, 0x63, 0x98, 0xda, 0xbd, 0xd7, 0xf0, 0xbc, 0xbd,
  0xee, 0x2d, 0x7b, 0x3e, 0x58, 0xc4, 0x1f, 0x3d, 0x6e, 0x2a, 0xf6, 0xbc,
  0xa6, 0x72, 0x19, 0xbe, 0x82, 0xf1, 0x80, 0x3c, 0x87, 0xe3, 0xcb, 0xbd,
  0xdb, 0xff, 0x47, 0xbe, 0xee, 0x05, 0x73, 0xbc, 0x1d, 0x41, 0x10, 0x3e,
  0x12, 0x83, 0xbb, 0xbd, 0x86, 0xce, 0xd0, 0xbc, 0xc1, 0x13, 0x5c, 0xbe,
  0x09, 0x49, 0x87, 0x3c, 0x2b, 0xca, 0x06, 0xbe, 0xb6, 0x27, 0x20, 0xbe,
  0x35, 0x38, 0xb0, 0x3d, 0x09, 0x1b, 0x1f, 0xbe, 0xb3, 0xd4, 0x34, 0xbe,
  0xae, 0xbe, 0x0a, 0xbe, 0x47, 0xab, 0x83, 0xbd, 0x79, 0xf4, 0x76, 0xbe,
  0x87, 0xc0, 0x2f, 0xbd, 0x56, 0x66, 0x94, 0xbe, 0x9d, 0xee, 0xc3, 0x3d,
  0xc7, 0x6d, 0xff, 0xbd, 0x67, 0x7c, 0xec, 0xbd, 0xc2, 0x9a, 0xdb, 0x3d,
  0x5c, 0x43, 0x87, 0xbd, 0x41, 0xd9, 0x64, 0xba, 0xe4, 0x9f, 0x0b, 0xbd,
  0x97, 0x82, 0x0a, 0xbe, 0x48, 0x68, 0xf0, 0xbd, 0xd6, 0x2d, 0x86, 0xbd,
  0x0e, 0x3f, 0xed, 0xbd, 0x46, 0xac, 0x1a, 0xbe, 0x2e, 0xcb, 0x93, 0xbe,
  0x57, 0xa4, 0x67, 0xbe, 0xc7, 0x53, 0x71, 0xbd, 0xd1, 0x9a, 0x40, 0x3a,
  0x53, 0x96, 0x5d, 0x3d, 0xb4, 0xfe, 0x51, 0xbe, 0x3c, 0x2a, 0xeb, 0xba,
  0xfe, 0xbe, 0x84, 0xbe, 0x5d, 0xcd, 0xe8, 0xbd, 0x5b, 0xf9, 0x0f, 0x3e,
  0x89, 0x5a, 0x59, 0x3e, 0xbd, 0xec, 0x7b, 0xbe, 0x54, 0xa4, 0x6a, 0x3d,
  0x2a, 0xf7, 0x3b, 0x3e, 0xb1, 0x4e, 0x6f, 0xbe, 0x70, 0x04, 0x01, 0xbe,
  0xef, 0xf6, 0x8f, 0xbe, 0x35, 0xed, 0x5d, 0x3a, 0xac, 0x37, 0x80, 0xbd,
  0x98, 0xf5, 0x4a, 0xbe, 0xe1, 0x07, 0x01, 0x3e, 0xaf, 0x64, 0x90, 0x3d,
  0x5c, 0x2f, 0x4c, 0x3e, 0xd4, 0xbf, 0xae, 0xbd, 0xa9, 0xb6, 0x13, 0xbe,
  0x92, 0xe6, 0x17, 0x3e, 0x58, 0xf0, 0xd8, 0x3e, 0xb9, 0xd0, 0x6d, 0x3d,
  0x2c, 0x02, 0xe1, 0x3d, 0x9e, 0x07, 0x18, 0x3d, 0xa8, 0x80, 0xa2, 0x3d,
  0xa3, 0x82, 0x36, 0x3c, 0xb0, 0x01, 0x32, 0xbd, 0x95, 0x7d, 0xc4, 0xbd,
  0x85, 0x4e, 0x76, 0x3d, 0xf8, 0xdb, 0xa1, 0xbd, 0x91, 0x82, 0xef, 0xbd,
  0xa6, 0xac, 0xc0, 0xbd, 0x45, 0x62, 0x1e, 0x3e, 0x2b, 0x3f, 0x82, 0x3d,
  0x2c, 0xbc, 0x15, 0xbe, 0x24, 0x68, 0x80, 0xbd, 0xa0, 0xd5, 0x00, 0x3f,
  0x77, 0x41, 0xcf, 0xba, 0xfe, 0x8e, 0x8b, 0x3c, 0x50, 0x56, 0x8b, 0xbe,
  0x98, 0x2b, 0x78, 0xbd, 0xde, 0x69, 0x4e, 0x3d, 0x9a, 0xcc, 0x28, 0x3e,
  0xe7, 0x7a, 0x1d, 0xbc, 0x5c, 0xa8, 0x29, 0x3d, 0x78, 0x28, 0x40, 0xbe,
  0x7f, 0xf7, 0xb2, 0x3d, 0x9e, 0x71, 0xf3, 0xbd, 0x99, 0x84, 0x7b, 0x3e,
  0xc3, 0x4a, 0x20, 0x3e, 0x6b, 0xa5, 0x10, 0xbe, 0x9c, 0x65, 0xd8, 0x3c,
  0x79, 0x9c, 0xf6, 0x3e, 0x74, 0xab, 0x8f, 0xbc, 0xec, 0x04, 0x55, 0xbd,
  0xe0, 0xd9, 0x20, 0xbd, 0xb8, 0xc1, 0x6f, 0x3a, 0x6b, 0xd2, 0x42, 0xbe,
  0xaa, 0x6e, 0x50, 0xbe, 0x30, 0x5b, 0xdc, 0xbd, 0x4c, 0x9a, 0x61, 0xbe,
  0x8a, 0x58, 0x96, 0xbd, 0xe8, 0xaa, 0xfc, 0xbd, 0xb9, 0xcc, 0x39, 0xbe,
  0x13, 0x66, 0x55, 0xbc, 0x3c, 0x37, 0x22, 0xbe, 0xbe, 0xf3, 0x03, 0x3e,
  0xda, 0x9a, 0xf3, 0xbc, 0xf6, 0xe7, 0x01, 0x3f, 0x94, 0xee, 0x37, 0xbe,
  0x8a, 0xbb, 0x53, 0xbe, 0x35, 0x55, 0x3e, 0x3e, 0x75, 0x20, 0xbe, 0x3d,
  0x17, 0xab, 0x87, 0xbe, 0x0e, 0x91, 0x00, 0xbe, 0xcc, 0xbd, 0xd0, 0xbd,
  0xab, 0xaf, 0xd7, 0x3a, 0xbc, 0xad, 0x84, 0xbd, 0x2a, 0x3f, 0xa4, 0x3d,
  0x25, 0x96, 0xd5, 0x3c, 0xe0, 0x38, 0xd1, 0x3e, 0x2f, 0x15, 0x1c, 0xbd,
  0x57, 0x0f, 0x2d, 0xbe, 0x62, 0x20, 0x92, 0xbc, 0x67, 0xf1, 0x06, 0x3f,
  0x4f, 0x55, 0x04, 0xbe, 0x8f, 0x8c, 0x10, 0x3d, 0xf0, 0xaa, 0x3e, 0x3e,
  0x7f, 0x31, 0x9d, 0xbd, 0xde, 0xef, 0x69, 0xbd, 0xe0, 0xaf, 0x66, 0xbd,
  0xa4, 0x03, 0x21, 0xbe, 0x98, 0x94, 0x94, 0xbc, 0x7c, 0xf2, 0x94, 0xbd,
  0x2f, 0x6d, 0x2c, 0xbe, 0x23, 0xe1, 0xe9, 0x3d, 0x2e, 0x2f, 0x1b, 0x3e,
  0xd4, 0x4c, 0xed, 0xbd, 0xdd, 0x76, 0x34, 0x3c, 0x65, 0x84, 0x74, 0xbe,
  0x1e, 0x60, 0xfa, 0x3d, 0xfa, 0x4b, 0x3e, 0xbd, 0x61, 0x48, 0x49, 0x3e,
  0x95, 0x5a, 0xd9, 0x3b, 0xee, 0xdd, 0x17, 0xbd, 0x54, 0x8b, 0xe5, 0xbd,
  0x43, 0xd2, 0x09, 0x3c, 0x39, 0x20, 0x18, 0xbe, 0xd5, 0xfe, 0xda, 0xbd,
  0x3f, 0x20, 0x5b, 0xbd, 0x5e, 0xcc, 0x6d, 0xbd, 0x05, 0xc7, 0x90, 0xbe,
  0xa1, 0x58, 0x1d, 0x3d, 0x17, 0x8d, 0x93, 0xbe, 0x95, 0x7e, 0xdf, 0xbd,
  0x03, 0x74, 0xb4, 0xbd, 0x07, 0x49, 0x07, 0x3e, 0x54, 0xee, 0x5f, 0xbe,
  0x41, 0xbf, 0xee, 0xbd, 0x14, 0x47, 0x88, 0x3e, 0xdf, 0xe9, 0x93, 0xbe,
  0x53, 0x98, 0xbc, 0xbc, 0xca, 0x0c, 0x5e, 0xbe, 0xa2, 0x7b, 0xaa, 0xbe,
  0xd0, 0x26, 0x8c, 0xbe, 0x49, 0x33, 0xaa, 0x3d, 0xfd, 0xd0, 0xd4, 0xbe,
  0x38, 0xad, 0xbc, 0xbe, 0x8d, 0x09, 0x12, 0xbf, 0x45, 0x1b, 0x2c, 0xbf,
  0x69, 0x2d, 0x26, 0xbe, 0xfa, 0x3f, 0xe7, 0x3d, 0x4e, 0x25, 0x23, 0x3d,
  0x4e, 0x5a, 0x9c, 0xbd, 0xa6, 0x9f, 0xdf, 0x3d, 0xa7, 0x2d, 0x80, 0x3e,
  0x67, 0x9a, 0x81, 0xbe, 0x8a, 0x39, 0x4f, 0xbd, 0x32, 0xbe, 0x3a, 0x3e,
  0x3d, 0x4c, 0x22, 0xbe, 0x41, 0x8c, 0xf6, 0x3e, 0x9d, 0xe0, 0x95, 0xbc,
  0xdc, 0xdc, 0xf2, 0xbe, 0x64, 0x6c, 0x54, 0x3e, 0x8b, 0xea, 0x1f, 0x3d,
  0x49, 0xba, 0x43, 0xbe, 0x1d, 0x5d, 0xef, 0xbe, 0xaf, 0xe9, 0x4e, 0x3d,
  0x31, 0x6a, 0x82, 0x3c, 0x85, 0x71, 0x3e, 0x3e, 0xbb, 0x8f, 0xb5, 0x3e,
  0x2c, 0x1d, 0x47, 0xbd, 0xb6, 0x1b, 0x1d, 0x3d, 0xf1, 0xa9, 0x33, 0xbd,
  0xab, 0x36, 0xf9, 0x3e, 0x7d, 0xbf, 0x7a, 0xbe, 0xad, 0x17, 0xe9, 0x3e,
  0x24, 0x37, 0xb5, 0x3d, 0x6f, 0x33, 0xcf, 0x3d, 0x42, 0xfa, 0x1c, 0x3e,
  0x09, 0xcb, 0x9a, 0x3d, 0xac, 0x2f, 0x4e, 0xbe, 0x66, 0x83, 0x0a, 0xbe,
  0x8e, 0x99, 0x84, 0xbd, 0x70, 0x9a, 0x98, 0x3e, 0x82, 0x26, 0xc3, 0x3e,
  0xa2, 0x22, 0x79, 0x3e, 0xf9, 0x8f, 0x65, 0xbd, 0x6b, 0x94, 0x7c, 0xbb,
  0x58, 0x91, 0x20, 0x3d, 0x63, 0x2c, 0x76, 0x3e, 0x5f, 0x09, 0x15, 0xbe,
  0x1f, 0xee, 0x2e, 0x3f, 0x4e, 0x0c, 0xc4, 0x3c, 0xed, 0xe5, 0x8a, 0x3d,
  0x5a, 0x49, 0x07, 0x3d, 0xc8, 0x57, 0x68, 0xbd, 0x19, 0x69, 0xe6, 0xbd,
  0xee, 0xb4, 0xaf, 0xbd, 0xf0, 0x9c, 0xd5, 0xbd, 0x81, 0xef, 0x94, 0xbd,
  0x66, 0x8e, 0x32, 0x3e, 0x2a, 0xac, 0x32, 0x3e, 0x3c, 0xed, 0xbb, 0x3d,
  0x06, 0xdc, 0x3f, 0xbe, 0xe5, 0x9b, 0x9c, 0xbd, 0x30, 0x29, 0x96, 0x3e,
  0x1d, 0xf2, 0x87, 0xbe, 0x62, 0x71, 0x3d, 0x3e, 0xe6, 0x1f, 0xcd, 0x3d,
  0x99, 0x57, 0x58, 0xbe, 0x55, 0x85, 0xc4, 0x3b, 0x42, 0x5c, 0x4e, 0x3c,
  0xe7, 0x74, 0xbb, 0x3d, 0x78, 0x7a, 0x01, 0xbe, 0xa9, 0xd1, 0x86, 0xbd,
  0xe1, 0x75, 0x0e, 0x3e, 0x7b, 0x08, 0x5e, 0x3d, 0x30, 0x18, 0xc9, 0x3d,
  0x5e, 0x7a, 0x35, 0x3e, 0x37, 0x28, 0x94, 0xbe, 0x41, 0xbf, 0x84, 0x3b,
  0x0a, 0x7f, 0x14, 0x3e, 0x10, 0xf8, 0xd3, 0xbe, 0x89, 0xe9, 0x76, 0x3e,
  0x4d, 0x73, 0x37, 0x3d, 0xfc, 0xbc, 0x5e, 0xbe, 0xea, 0x58, 0x5c, 0x3e,
  0x0f, 0xfa, 0x1d, 0x3e, 0xd9, 0x88, 0xfc, 0xbd, 0x93, 0x5e, 0x07, 0xbe,
  0x7d, 0xf3, 0x1a, 0xbe, 0x13, 0x5d, 0xd0, 0x3a, 0x60, 0x09, 0x82, 0x3e,
  0xe5, 0xc2, 0xc7, 0x3e, 0x45, 0x3c, 0xb6, 0x3c, 0x37, 0xd8, 0x11, 0xbe,
  0x79, 0x3c, 0xdd, 0xbc, 0x70, 0x3e, 0x95, 0x3c, 0x51, 0xaf, 0xa5, 0xbe,
  0xd6, 0xf9, 0x60, 0xbd, 0x72, 0x45, 0x96, 0x3c, 0xb2, 0x5f, 0x12, 0xbe,
  0xe8, 0x4f, 0xc1, 0x3d, 0x98, 0x33, 0x54, 0xbe, 0x4a, 0x7f, 0xa3, 0x3c,
  0x5a, 0x08, 0xf3, 0xbb, 0xe3, 0x7a, 0x9a, 0x3c, 0x63, 0x66, 0xe4, 0x3e,
  0x52, 0xe6, 0xc2, 0xbd, 0x1b, 0xf1, 0xd1, 0x3e, 0xf0, 0x52, 0x70, 0xbe,
  0x33, 0xb6, 0x26, 0x3d, 0xc9, 0x47, 0x17, 0xbe, 0x49, 0x5d, 0x00, 0xbe,
  0x00, 0xfd, 0x3c, 0xbe, 0xa6, 0xfd, 0x22, 0x3c, 0x62, 0x67, 0x3e, 0xbe,
  0x2d, 0xb7, 0x4c, 0xbd, 0x88, 0x4b, 0x09, 0xbe, 0x80, 0x12, 0x47, 0xbd,
  0xe1, 0x10, 0x5a, 0x3d, 0x86, 0x7a, 0x93, 0xbd, 0x45, 0xbc, 0x16, 0x3e,
  0xcd, 0x2a, 0x1f, 0xbd, 0x56, 0xc1, 0x52, 0xbe, 0x8a, 0x46, 0x8b, 0xbb,
  0x01, 0x90, 0x3a, 0xbd, 0x4b, 0x53, 0x1b, 0xbd, 0x76, 0xf6, 0x49, 0xbe,
  0x03, 0x34, 0x9d, 0xbe, 0x34, 0xbd, 0xec, 0x3d, 0x8b, 0x21, 0x44, 0xbe,
  0x58, 0xfb, 0xb1, 0xbd, 0x9a, 0x64, 0x1d, 0xbc, 0x54, 0xe7, 0x83, 0xbe,
  0xd8, 0x8c, 0x74, 0xbe, 0xd4, 0xb7, 0x86, 0x3d, 0x0c, 0x2b, 0xff, 0xbc,
  0x49, 0xe5, 0x8c, 0xbe, 0x80, 0xb5, 0xff, 0xbd, 0x9d, 0x84, 0x3c, 0xbe,
  0xb8, 0x19, 0xbf, 0x3d, 0xc4, 0x45, 0x87, 0x3d, 0x96, 0x52, 0x08, 0x3e,
  0xce, 0xdf, 0x78, 0xbe, 0x8e, 0x70, 0x1f, 0x3e, 0xa5, 0x91, 0x93, 0xbd,
  0x70, 0x2b, 0x25, 0x3d, 0x64, 0x78, 0xfa, 0xbb, 0x09, 0xa6, 0x2a, 0xbc,
  0x11, 0x4e, 0x08, 0xbc, 0x82, 0xdc, 0x5a, 0x3d, 0x74, 0xcf, 0xac, 0x3d,
  0x73, 0x5f, 0xe2, 0x3d, 0x14, 0xe0, 0x22, 0x3c, 0x9f, 0x00, 0x10, 0x3e,
  0xca, 0x15, 0x9a, 0xbe, 0x24, 0x94, 0x1f, 0x3e, 0xe0, 0x2d, 0x3e, 0xbd,
  0x15, 0x99, 0x21, 0xbe, 0xe4, 0xb9, 0xef, 0xbd, 0xb6, 0xb4, 0x71, 0xbe,
  0x41, 0x30, 0x52, 0xbe, 0x5f, 0xc9, 0xbc, 0xbd, 0x30, 0xdd, 0xae, 0xbd,
  0x6f, 0x85, 0x9c, 0x3d, 0x4a, 0xe1, 0x41, 0xbe, 0xc8, 0x19, 0x70, 0xbd,
  0xfd, 0x1c, 0xe6, 0x3d, 0xff, 0x0d, 0x63, 0xbe, 0xea, 0xa3, 0xd3, 0xbd,
  0x2d, 0xa5, 0x67, 0xbd, 0xfe, 0x9a, 0xc7, 0x3d, 0x46, 0xff, 0x64, 0xbd,
  0x2c, 0x7a, 0x2c, 0x3b, 0x68, 0x33, 0xf9, 0x3c, 0x39, 0x66, 0x10, 0xbe,
  0x3f, 0x9e, 0x81, 0xbe, 0xa5, 0x3c, 0xad, 0xbd, 0xfc, 0x62, 0x0a, 0x3e,
  0x14, 0xb7, 0x1e, 0xbd, 0x3c, 0x55, 0xea, 0x3d, 0x99, 0x14, 0x33, 0x3d,
  0x38, 0x7e, 0xf4, 0xbd, 0x8d, 0x7a, 0xab, 0x3d, 0x5d, 0x1c, 0x0b, 0xbe,
  0x72, 0x31, 0x01, 0xbe, 0x98, 0x6c, 0xc3, 0xbd, 0x33, 0x61, 0x6a, 0xbe,
  0x48, 0x65, 0xab, 0xbd, 0x97, 0xb4, 0x65, 0x3d, 0x4b, 0xfa, 0x59, 0x3d,
  0x24, 0xaa, 0x88, 0x3d, 0xee, 0xdf, 0x7c, 0xbd, 0x6e, 0x21, 0x65, 0xbe,
  0x68, 0x8b, 0x1d, 0xbe, 0x37, 0x73, 0x70, 0xbe, 0x54, 0x0e, 0x08, 0x3e,
  0x42, 0x82, 0x39, 0xbd, 0x1d, 0x5e, 0xcc, 0xbd, 0x67, 0x58, 0x28, 0x3c,
  0x3e, 0xa6, 0x3e, 0xbe, 0xeb, 0x3e, 0x9b, 0x3d, 0xa8, 0x17, 0xbc, 0x3d,
  0xd7, 0x5b, 0xdb, 0x3d, 0xdf, 0x02, 0x72, 0xbe, 0xe9, 0x34, 0x15, 0xbd,
  0x54, 0x6e, 0xbc, 0x3c, 0xec, 0x43, 0x6e, 0xbe, 0x38, 0x1f, 0x6b, 0x3d,
  0x9f, 0x0a, 0xcc, 0xbd, 0xb3, 0x64, 0x8f, 0x3d, 0x61, 0x97, 0x18, 0xbe,
  0x4c, 0x5c, 0x23, 0xbe, 0x7b, 0x1f, 0x70, 0xbe, 0x84, 0x4b, 0xdf, 0xbc,
  0x11, 0x9f, 0x61, 0xbe, 0xac, 0x2d, 0x8c, 0xbe, 0xe4, 0x25, 0x3f, 0xbe,
  0xef, 0xb9, 0x74, 0x3d, 0x03, 0x63, 0x48, 0xbe, 0xbc, 0xba, 0x59, 0xbd,
  0xd0, 0x81, 0xd5, 0xbd, 0xfb, 0xd9, 0x13, 0xbd, 0xb3, 0xfe, 0xfc, 0xbd,
  0xbf, 0xa2, 0x8b, 0xbe, 0x84, 0x5b, 0x0b, 0xbd, 0xd4, 0xa8, 0x32, 0xbe,
  0x3d, 0x19, 0x72, 0xbd, 0xe7, 0x94, 0x82, 0x3e, 0xfa, 0x02, 0x9d, 0xbe,
  0xf6, 0x10, 0x58, 0xbd, 0x46, 0x09, 0x94, 0x3e, 0x56, 0xb3, 0xec, 0x3e,
  0x22, 0x3c, 0x04, 0xbd, 0xaa, 0x20, 0x0c, 0x3e, 0xa0, 0xc4, 0xaa, 0xbe,
  0xeb, 0x42, 0x6e, 0xbe, 0xc2, 0xfc, 0xcc, 0xbc, 0xdd, 0x91, 0x03, 0x3e,
  0xa1, 0x9c, 0xe5, 0xbd, 0x69, 0x02, 0xba, 0xbe, 0x57, 0x35, 0x01, 0x3c,
  0x4b, 0x39, 0xe0, 0xbd, 0xfa, 0x85, 0xa9, 0xbd, 0xc2, 0xf8, 0x60, 0x3e,
  0x03, 0x76, 0x4b, 0x3c, 0x5a, 0x90, 0x84, 0x3e, 0x87, 0x62, 0x30, 0x3c,
  0x67, 0xa1, 0x25, 0x3e, 0x10, 0x9c, 0x63, 0xbd, 0x21, 0x06, 0xb1, 0x3d,
  0x3e, 0x0f, 0x29, 0x3e, 0x8b, 0x3a, 0xcd, 0xbd, 0x8a, 0x73, 0x91, 0xbe,
  0x7c, 0x5f, 0x21, 0x3f, 0x81, 0x7d, 0x19, 0x3d, 0x92, 0xc4, 0x96, 0xbe,
  0x7e, 0xe2, 0xc6, 0x3e, 0xe6, 0xab, 0x76, 0xbd, 0x33, 0x3c, 0xf6, 0xbc,
  0x13, 0xa4, 0x80, 0x3e, 0x5a, 0xbe, 0xb8, 0x3e, 0x21, 0xfb, 0x23, 0xbd,
  0x07, 0xd2, 0xf2, 0xbb, 0x2f, 0xda, 0xf2, 0x3c, 0xf2, 0xff, 0xb6, 0xbd,
  0xde, 0x8b, 0x97, 0x3d, 0x73, 0x34, 0x74, 0xbd, 0xcd, 0x89, 0x88, 0xbd,
  0x42, 0x9a, 0x29, 0xbd, 0x09, 0x5f, 0xc6, 0x3e, 0x6f, 0xaf, 0xb3, 0x3e,
  0x6c, 0x08, 0xc4, 0xbe, 0x23, 0x92, 0xe6, 0x3e, 0x0b, 0x52, 0x9d, 0xbe,
  0x9d, 0xaf, 0x85, 0x3c, 0x54, 0x9e, 0x6e, 0x3e, 0x63, 0x3b, 0xae, 0x3e,
  0x4a, 0x5d, 0xcb, 0xbe, 0x38, 0xc2, 0xfb, 0x3e, 0xa8, 0x10, 0xd8, 0x3d,
  0xc5, 0x74, 0x03, 0xbd, 0x98, 0x66, 0x08, 0xbe, 0x9f, 0x6b, 0x8b, 0xbe,
  0x77, 0x6a, 0x12, 0x3e, 0x61, 0x1d, 0xcd, 0x3c, 0x78, 0x2c, 0x9c, 0x3d,
  0x99, 0xdf, 0xd8, 0x3d, 0x48, 0x26, 0x0c, 0xbf, 0xf8, 0x7a, 0xe4, 0x3d,
  0xd0, 0x42, 0x9f, 0xbe, 0xbc, 0xa0, 0xfd, 0x3c, 0x72, 0x82, 0x35, 0x3e,
  0x06, 0x40, 0x5f, 0xbe, 0x36, 0x66, 0x8a, 0xbe, 0x93, 0x3d, 0xbc, 0x3e,
  0xa7, 0xca, 0x67, 0x3e, 0x8f, 0xbb, 0xab, 0x3d, 0x16, 0xf1, 0x64, 0xbd,
  0x01, 0x13, 0xfe, 0xbe, 0x7f, 0x1a, 0x83, 0xbc, 0x50, 0x36, 0x85, 0xbc,
  0x58, 0xa8, 0xa6, 0x3d, 0x99, 0xf6, 0x19, 0xbe, 0xe6, 0x46, 0x99, 0xbe,
  0xb9, 0x20, 0xb9, 0x3d, 0x8f, 0x45, 0xdd, 0xbe, 0x84, 0x34, 0x75, 0xbd,
  0x88, 0x68, 0xbb, 0x3e, 0x9b, 0x5a, 0x8c, 0xbe, 0xe5, 0x9d, 0xd8, 0xbc,
  0xbb, 0x35, 0x90, 0x3e, 0xcc, 0x89, 0x84, 0x3e, 0xfa, 0x72, 0x8d, 0x3e,
  0x7e, 0x74, 0x02, 0x3d, 0x39, 0xe0, 0x00, 0xbf, 0xe5, 0xfc, 0x0f, 0xbd,
  0xb8, 0x42, 0x64, 0x3e, 0x71, 0x21, 0x08, 0x3e, 0xbe, 0x17, 0x4f, 0xbe,
  0xff, 0x22, 0xa7, 0xbd, 0xd5, 0x41, 0x2a, 0x3e, 0x57, 0xc4, 0x8b, 0xbe,
  0x4f, 0xd8, 0x9b, 0xbd, 0x76, 0xbe, 0x75, 0x3e, 0x6c, 0xb9, 0x2c, 0xbe,
  0xf6, 0xec, 0x40, 0x3d, 0x07, 0xdf, 0x2e, 0xbd, 0x04, 0xf1, 0x06, 0x3d,
  0xd5, 0x89, 0xab, 0xbd, 0xf8, 0x0e, 0xec, 0x3d, 0x2e, 0xeb, 0x5f, 0xbb,
  0xee, 0xaa, 0x9b, 0xbd, 0xe0, 0x02, 0x7b, 0xbd, 0x7f, 0xec, 0x0a, 0xbe,
  0xde, 0xbf, 0xf7, 0xbd, 0x9c, 0x7c, 0xa6, 0xbb, 0x16, 0x73, 0xc0, 0xbe,
  0x0f, 0x4c, 0x04, 0xbe, 0xca, 0x6b, 0x07, 0xbe, 0xea, 0xa7, 0x5c, 0xbe,
  0x91, 0xf4, 0x11, 0x3d, 0x0e, 0x51, 0x89, 0xbe, 0xb8, 0x5b, 0xa3, 0xbd,
  0x0b, 0x1f, 0x0c, 0xbe, 0xfc, 0x19, 0xf3, 0xbd, 0xb7, 0x57, 0x23, 0x3e,
  0x47, 0x0d, 0x0a, 0xbe, 0x00, 0x6f, 0x5f, 0xbd, 0xde, 0xd0, 0x9b, 0x3d,
  0xfb, 0x7d, 0x06, 0xbe, 0xef, 0x99, 0xbf, 0xbd, 0x30, 0x05, 0xe8, 0xbd,
  0x29, 0x34, 0x36, 0xbe, 0xea, 0xf0, 0xf2, 0xbd, 0xf9, 0x40, 0x08, 0xbe,
  0xdd, 0x0d, 0x04, 0xbe, 0x1a, 0x31, 0x41, 0xbe, 0x65, 0x07, 0xf1, 0xbe,
  0xc6, 0x02, 0x1f, 0xbe, 0xa5, 0xf7, 0xc8, 0xbd, 0xb5, 0x82, 0x3b, 0x3c,
  0x61, 0x61, 0xb5, 0xbc, 0x25, 0xfa, 0x13, 0xbe, 0xde, 0x2b, 0x36, 0xbe,
  0x3b, 0xdb, 0x2b, 0xbc, 0x70, 0x32, 0xd4, 0xbe, 0x77, 0x5a, 0x8e, 0x3d,
  0xb7, 0x7d, 0x38, 0x3c, 0x81, 0x90, 0x6b, 0xbe, 0xc1, 0xbe, 0x38, 0x3d,
  0x08, 0x0d, 0x9b, 0xbd, 0x3f, 0xbc, 0x91, 0xbe, 0x66, 0x03, 0xb4, 0xbc,
  0xb7, 0x86, 0xfa, 0xbd, 0x80, 0x16, 0x9a, 0x3d, 0xbd, 0x27, 0x03, 0x3b,
  0x95, 0x7e, 0x10, 0xbe, 0x9b, 0x38, 0x9e, 0x3d, 0x68, 0x8d, 0xb2, 0x3b,
  0x6b, 0x4e, 0x25, 0xbb, 0x5a, 0x0a, 0xf4, 0xbc, 0x69, 0x81, 0x9c, 0xbe,
  0x3a, 0x89, 0x17, 0x3d, 0xe9, 0xf3, 0xfc, 0xbd, 0xb3, 0x2a, 0x8c, 0xbe,
  0xea, 0xa3, 0xba, 0xbc, 0xd2, 0x0d, 0xe0, 0xbd, 0xbf, 0xbb, 0xea, 0x3c,
  0xa7, 0x06, 0xb9, 0x3d, 0x4c, 0xa7, 0x0d, 0xbe, 0xf9, 0x64, 0x48, 0xbe,
  0x46, 0x5b, 0x21, 0xbe, 0x61, 0x2c, 0xcf, 0xbd, 0x3a, 0x7f, 0x4f, 0xbe,
  0x23, 0x3f, 0x46, 0xbe, 0x00, 0x0a, 0x5c, 0xbd, 0xe8, 0x7d, 0xc0, 0xbc,
  0x63, 0x8e, 0x2d, 0xbe, 0x13, 0x45, 0xe6, 0xbd, 0xed, 0x9c, 0x00, 0xbe,
  0xb6, 0xee, 0x2a, 0xbe, 0x68, 0xc9, 0x4b, 0xbd, 0x63, 0xec, 0x5e, 0xbd,
  0xcf, 0xa1, 0x9b, 0xbe, 0xb9, 0x78, 0x24, 0xbe, 0x92, 0xa7, 0x74, 0xbe,
  0x5b, 0xc8, 0x8d, 0xbe, 0xf6, 0x35, 0x01, 0xbe, 0x75, 0x2b, 0x47, 0xbe,
  0x8d, 0x76, 0x35, 0xbe, 0xf5, 0xfa, 0x2b, 0xbe, 0x81, 0x2d, 0x6a, 0xbe,
  0x49, 0xe6, 0xd1, 0x3d, 0xbc, 0xde, 0x34, 0xbe, 0xc2, 0x32, 0x3c, 0xbd,
  0x2a, 0xa3, 0xaa, 0xbe, 0x67, 0x41, 0x7e, 0xbe, 0x68, 0x40, 0x8f, 0xbd,
  0x01, 0x5c, 0x07, 0xbe, 0x1d, 0x90, 0xbc, 0xbe, 0xc8, 0x52, 0xa3, 0xbe,
  0x26, 0x0e, 0x51, 0xbe, 0x34, 0x36, 0x40, 0xbe, 0x5b, 0x6a, 0x3c, 0xbe,
  0x92, 0xc7, 0x29, 0xbe, 0xe9, 0x32, 0x1b, 0xbe, 0xfe, 0x8f, 0xbd, 0xbd,
  0xfe, 0xb0, 0xe1, 0x3c, 0x8a, 0x00, 0xed, 0x3e, 0xf2, 0x89, 0xce, 0x3e,
  0x14, 0x82, 0x78, 0x3d, 0x94, 0x90, 0x50, 0x3e, 0xe1, 0x19, 0xd6, 0x3d,
  0x57, 0x62, 0x11, 0x3d, 0xa1, 0x40, 0x3a, 0x3c, 0x0e, 0xd3, 0x14, 0x3d,
  0x64, 0xaf, 0x8e, 0x3e, 0x2d, 0xbe, 0x37, 0x3d, 0x94, 0xa8, 0xbc, 0xbd,
  0x37, 0x0e, 0x8d, 0xbe, 0x6e, 0xc2, 0x50, 0xbd, 0xeb, 0x65, 0x81, 0x3d,
  0xb1, 0xdd, 0x05, 0x3e, 0xc7, 0x7c, 0x36, 0x3e, 0x48, 0x75, 0xa0, 0xbc,
  0x5a, 0x36, 0x2e, 0x3b, 0x1c, 0x6d, 0x9d, 0xbe, 0xbc, 0x92, 0xd6, 0xbd,
  0x8f, 0xb0, 0xb6, 0x3d, 0xed, 0x1c, 0xb8, 0x3a, 0xf8, 0x1c, 0x59, 0xbe,
  0xb2, 0xf1, 0x49, 0xbe, 0xe2, 0xe4, 0x2d, 0xbe, 0xe7, 0xe0, 0x5f, 0xbe,
  0x2e, 0x6e, 0x2f, 0xbe, 0x2a, 0x5a, 0xec, 0xbd, 0xb4, 0x76, 0x3f, 0xbe,
  0x42, 0x98, 0xbe, 0xbd, 0x73, 0x5e, 0x74, 0xbd, 0x89, 0x17, 0x22, 0xbc,
  0x5f, 0x7b, 0x2e, 0xbe, 0x61, 0x54, 0xe3, 0x3d, 0xba, 0x2a, 0xdc, 0xbd,
  0x56, 0x44, 0x97, 0xbe, 0x66, 0x28, 0x42, 0xbe, 0x15, 0xb8, 0x69, 0xbe,
  0x03, 0xde, 0xed, 0xbb, 0x78, 0x63, 0xdb, 0xbc, 0x14, 0xf1, 0xcd, 0x3d,
  0x3a, 0xc9, 0xa9, 0x3d, 0xe7, 0x3b, 0x2b, 0x3d, 0x98, 0xe3, 0x10, 0xbe,
  0xc4, 0xe3, 0x5d, 0xbe, 0x3c, 0xdf, 0x2b, 0xbd, 0x63, 0x4d, 0x70, 0xbd,
  0x64, 0xf9, 0x57, 0xbe, 0x0c, 0x34, 0xd2, 0x3d, 0x5e, 0xa9, 0xce, 0x3d,
  0x29, 0x98, 0x78, 0xbd, 0xe5, 0xb8, 0x36, 0xbe, 0xfa, 0xe5, 0x53, 0x3c,
  0x0e, 0x6e, 0xc0, 0xbd, 0xfc, 0x2a, 0x2a, 0xbe, 0x71, 0xf5, 0x57, 0xbe,
  0x14, 0x47, 0x3a, 0xbe, 0x7e, 0x50, 0x33, 0xbe, 0x31, 0xc2, 0x49, 0xbc,
  0x89, 0xf8, 0xcd, 0xbd, 0x28, 0x74, 0xda, 0x3d, 0x9e, 0x28, 0xfe, 0x3d,
  0x2b, 0x0e, 0xe4, 0xbd, 0x07, 0x09, 0xfd, 0xbd, 0x00, 0x50, 0x89, 0xbb,
  0x98, 0x9c, 0x04, 0x3e, 0x55, 0xe6, 0x16, 0x3d, 0xe0, 0xc9, 0xc0, 0xbd,
  0xe6, 0xfd, 0x15, 0xbe, 0x60, 0x39, 0x83, 0x3d, 0x00, 0x41, 0x93, 0xbe,
  0x9e, 0x2f, 0x6d, 0xbe, 0x2d, 0x68, 0x40, 0xbc, 0x43, 0x21, 0x30, 0xbd,
  0x44, 0xd9, 0x45, 0xbe, 0xea, 0x7e, 0x6f, 0x3d, 0x7d, 0x26, 0x7b, 0xbd,
  0xcb, 0x14, 0x59, 0x3e, 0x2e, 0xbd, 0xea, 0x3d, 0xdc, 0x1c, 0x22, 0xbe,
  0xc5, 0xf4, 0x20, 0xbe, 0x28, 0x7a, 0x9d, 0xbc, 0xcf, 0x08, 0x31, 0xbe,
  0x92, 0xac, 0xb5, 0x3d, 0xed, 0x7a, 0xad, 0xbd, 0xae, 0xef, 0x20, 0xbe,
  0x6f, 0xbc, 0x98, 0xbd, 0xaf, 0x03, 0x4d, 0xbe, 0x11, 0x09, 0x76, 0xbe,
  0x61, 0x32, 0x5e, 0xbd, 0x98, 0xb4, 0x99, 0xbd, 0x0c, 0xc3, 0x47, 0xbe,
  0x70, 0xc0, 0x7d, 0x3d, 0x01, 0x19, 0xfb, 0xbd, 0xcb, 0x06, 0x86, 0xbe,
  0x4d, 0xf5, 0x01, 0xbe, 0x83, 0x45, 0xb9, 0xbd, 0x23, 0x3e, 0x2b, 0x3d,
  0x39, 0xaa, 0xdf, 0x3d, 0x01, 0x97, 0xb6, 0x3d, 0x85, 0xa7, 0x1d, 0xbe,
  0x1b, 0xea, 0x89, 0x3d, 0x4d, 0x71, 0x23, 0xbe, 0xb7, 0x24, 0xae, 0x3d,
  0x23, 0x4f, 0xcd, 0xbd, 0xc7, 0xb5, 0x70, 0xbe, 0xc5, 0x50, 0x92, 0xbb,
  0x94, 0xcc, 0x27, 0xbe, 0xdd, 0xfe, 0x0b, 0xbe, 0x34, 0x52, 0xa5, 0xbd,
  0xa5, 0x9d, 0x21, 0xbe, 0x8d, 0x3f, 0x0f, 0x3e, 0x55, 0xed, 0x4a, 0xbe,
  0xea, 0xc2, 0xe4, 0xbc, 0xf5, 0x1e, 0x47, 0xbe, 0x87, 0x8b, 0x38, 0xbe,
  0x01, 0x22, 0x18, 0xbd, 0x9c, 0x14, 0xf1, 0xbd, 0x10, 0xed, 0x76, 0xbd,
  0xa0, 0x8b, 0xbf, 0xbc, 0x16, 0xfd, 0x51, 0xbe, 0x11, 0xb1, 0x47, 0xbe,
  0x92, 0xb6, 0xb4, 0x3d, 0x8d, 0x06, 0xde, 0xbd, 0x25, 0x0c, 0x9f, 0x3d,
  0xcd, 0xd8, 0xc9, 0xbc, 0x3c, 0x52, 0xdd, 0xbd, 0x23, 0xf3, 0x07, 0xbe,
  0x75, 0x21, 0xa4, 0x3d, 0x0c, 0x89, 0x23, 0xbe, 0xad, 0x54, 0xa4, 0xbe,
  0x9f, 0x31, 0x7e, 0x3e, 0x46, 0xbf, 0xd3, 0xbd, 0xf4, 0x44, 0x0b, 0x3d,
  0xc5, 0x87, 0x9a, 0xbe, 0x43, 0xe6, 0xf0, 0xbd, 0xbe, 0x15, 0x07, 0xbe,
  0x50, 0x6d, 0x00, 0x3e, 0x84, 0x53, 0xa1, 0x3a, 0x3e, 0x13, 0x9f, 0x3d,
  0x30, 0x5c, 0x9f, 0xbd, 0x1a, 0xa6, 0xa1, 0x3e, 0xc3, 0xa5, 0x24, 0x3d,
  0x5e, 0xa6, 0x54, 0xbc, 0xdc, 0x8c, 0x25, 0x3e, 0x2a, 0x09, 0x92, 0x3e,
  0x8f, 0xb1, 0x4c, 0xbe, 0x7d, 0x59, 0x06, 0x3e, 0x15, 0x00, 0x01, 0xbd,
  0x93, 0x4e, 0xef, 0x3c, 0x5f, 0xf1, 0xa3, 0xbd, 0xcf, 0x3c, 0xce, 0x3d,
  0x5c, 0x67, 0xb0, 0x3d, 0x58, 0x84, 0x62, 0x3e, 0x3b, 0x8d, 0x95, 0xbe,
  0xbc, 0x02, 0xbf, 0xbd, 0x90, 0xdf, 0xa1, 0xbe, 0xc4, 0xa3, 0xda, 0x3e,
  0x0e, 0x6d, 0xab, 0x3e, 0xbc, 0xfb, 0xf9, 0xbd, 0xff, 0xf0, 0x48, 0xbe,
  0x53, 0x5f, 0x16, 0xbe, 0x62, 0x18, 0x15, 0x3e, 0x2a, 0x1d, 0x93, 0x3e,
  0xf2, 0x40, 0x1d, 0x3e, 0x35, 0x0d, 0x2d, 0x3f, 0xa9, 0x62, 0xc1, 0xbe,
  0x07, 0xf1, 0xbe, 0x3e, 0x7c, 0x32, 0x21, 0x3e, 0x3a, 0xeb, 0x9c, 0x3e,
  0x63, 0x7b, 0x51, 0x3e, 0xf0, 0xac, 0x15, 0xbe, 0xfe, 0xa7, 0x53, 0xbe,
  0xcc, 0xcf, 0x1a, 0x3f, 0x65, 0x76, 0xf9, 0x3e, 0x81, 0xd0, 0xec, 0xbd,
  0x78, 0x6f, 0x97, 0x3d, 0x1c, 0xfd, 0x33, 0x3e, 0x4b, 0xf9, 0x86, 0x3e,
  0x55, 0x6a, 0x6e, 0x3e, 0xb9, 0xf2, 0xb7, 0x3d, 0x2d, 0x11, 0x8c, 0x3e,
  0x0a, 0x19, 0x0c, 0xbe, 0x7a, 0xc1, 0xe0, 0x3e, 0xe3, 0x69, 0x88, 0x3d,
  0x90, 0xda, 0xb9, 0x3e, 0x88, 0x80, 0xa7, 0x3d, 0x8f, 0xd9, 0x30, 0x3e,
  0x35, 0xfa, 0x4f, 0xbc, 0xbe, 0xd3, 0x0b, 0x3f, 0x63, 0x85, 0x15, 0xbc,
  0x01, 0xb4, 0x0a, 0xbc, 0xfc, 0x5a, 0x5b, 0x3b, 0x37, 0x32, 0xc2, 0x3d,
  0x89, 0x6c, 0x97, 0x3d, 0x33, 0xb4, 0x2e, 0x3e, 0x8f, 0x34, 0xbb, 0xbd,
  0x1c, 0x01, 0x80, 0x3e, 0x92, 0x34, 0x92, 0xbe, 0x70, 0xea, 0x30, 0x3e,
  0x80, 0xbb, 0xc3, 0xbd, 0x9e, 0xec, 0x01, 0x3f, 0xcc, 0xf5, 0xc2, 0xba,
  0xb2, 0x39, 0xfe, 0xbd, 0xf8, 0x48, 0x90, 0xbd, 0x9f, 0x29, 0xf4, 0x3e,
  0xa4, 0x94, 0x7b, 0x3d, 0x81, 0xc5, 0xb7, 0x3d, 0x6a, 0x58, 0x71, 0x3e,
  0x4c, 0x7e, 0xf7, 0xbd, 0x0f, 0x2b, 0x51, 0xbe, 0xba, 0x5d, 0x46, 0x3e,
  0xd8, 0x41, 0x05, 0x3e, 0x5b, 0x77, 0xf2, 0xbd, 0x5e, 0x77, 0xa1, 0xbe,
  0x0c, 0xf0, 0xa2, 0x3d, 0x65, 0x96, 0xa9, 0x3d, 0xd6, 0x5c, 0x88, 0x3e,
  0x51, 0xcc, 0x50, 0x3d, 0x98, 0x02, 0x82, 0xbe, 0x29, 0x80, 0x92, 0xbe,
  0x0d, 0xba, 0x0b, 0x3f, 0x61, 0xdc, 0x9b, 0x3d, 0xeb, 0xed, 0x7c, 0xbd,
  0x60, 0xe2, 0xdc, 0xbd, 0x34, 0x2c, 0xc2, 0x3c, 0x13, 0x6c, 0x41, 0xbd,
  0x3f, 0x8d, 0x21, 0xbe, 0xcc, 0x49, 0x2c, 0xbd, 0xdf, 0x5f, 0xee, 0x3d,
  0xfc, 0x7a, 0x99, 0xbe, 0xc0, 0xd1, 0x44, 0xbe, 0xd5, 0x1c, 0x04, 0x3e,
  0x09, 0x4f, 0x37, 0xbe, 0x1e, 0x6b, 0xa8, 0xbe, 0x0a, 0xa1, 0xd5, 0xbd,
  0x5b, 0xf1, 0x21, 0xbe, 0xbf, 0x00, 0x39, 0xbd, 0xdd, 0x92, 0x23, 0xbd,
  0xe4, 0x98, 0xd1, 0x3e, 0x08, 0x95, 0xb7, 0xbe, 0x14, 0xcd, 0x17, 0x3e,
  0xce, 0xe7, 0x59, 0x3c, 0x67, 0x5e, 0xbf, 0x3d, 0xee, 0x8b, 0x26, 0x3d,
  0x0f, 0x19, 0x8d, 0x3e, 0x5a, 0x5e, 0x17, 0xbd, 0xca, 0xb9, 0x65, 0xbe,
  0x99, 0x78, 0x89, 0x3e, 0xc2, 0x83, 0x04, 0x3f, 0x79, 0x48, 0x53, 0x3c,
  0x90, 0x11, 0xd6, 0xbe, 0x4a, 0x3d, 0x31, 0xbe, 0xd0, 0x44, 0x08, 0x3f,
  0x3d, 0x7e, 0x33, 0x3e, 0xda, 0x70, 0x61, 0xbe, 0xfa, 0x2d, 0x1b, 0xbe,
  0x9c, 0x02, 0x5d, 0x3e, 0x2c, 0x02, 0x04, 0x3d, 0x05, 0x22, 0x14, 0xbe,
  0x7b, 0x28, 0xdc, 0xbe, 0xf3, 0x8d, 0xad, 0xbd, 0x98, 0x22, 0x95, 0xbd,
  0xde, 0x64, 0x06, 0x3d, 0x68, 0x1c, 0x4a, 0xbd, 0x02, 0xc6, 0x8e, 0x3e,
  0x63, 0x2f, 0x89, 0x3e, 0x8f, 0xad, 0x26, 0xbe, 0xf6, 0x31, 0x06, 0xbd,
  0x14, 0xbc, 0x2a, 0x3f, 0xd4, 0xa6, 0xc0, 0xbe, 0xd3, 0x37, 0x32, 0x3e,
  0x93, 0xbe, 0xb1, 0x3d, 0x1b, 0x4a, 0x1a, 0xbf, 0x73, 0x3e, 0x28, 0x3c,
  0x87, 0xd6, 0xba, 0xbe, 0x5b, 0x01, 0x18, 0xbf, 0xac, 0x5d, 0x98, 0xbe,
  0xec, 0x63, 0xaf, 0xbd, 0x7c, 0xdb, 0x1d, 0xbe, 0x3c, 0x85, 0x1e, 0x3d,
  0xfd, 0xab, 0x13, 0x3f, 0x83, 0x1f, 0x14, 0xbe, 0xc5, 0x36, 0x8c, 0xbe,
  0xc9, 0xac, 0x9f, 0xbd, 0x67, 0xb9, 0xf0, 0x3e, 0x35, 0x2d, 0x56, 0xbe,
  0xbf, 0x29, 0x55, 0x3d, 0x86, 0x21, 0x24, 0x3d, 0xc8, 0x9d, 0xd2, 0xbe,
  0xb3, 0x71, 0x90, 0xbd, 0x59, 0x3b, 0xf6, 0xbe, 0x35, 0xa2, 0xba, 0xbe,
  0xb1, 0x1c, 0xcb, 0xbe, 0x76, 0x9a, 0xb1, 0xbd, 0x30, 0xa2, 0xb7, 0xbe,
  0xde, 0x74, 0x73, 0x3d, 0xe5, 0xc4, 0x20, 0x3f, 0x2d, 0xca, 0x28, 0xbd,
  0x52, 0x3b, 0x09, 0xbe, 0x64, 0xfc, 0xe7, 0x3d, 0x90, 0x54, 0x2f, 0x3f,
  0x71, 0xd1, 0x6b, 0xbe, 0xe5, 0x62, 0x61, 0xbe, 0x29, 0x5d, 0xbc, 0xbd,
  0x8c, 0xe7, 0xba, 0x3d, 0xcf, 0xae, 0x64, 0xbe, 0xc1, 0x32, 0x2d, 0xbe,
  0xbf, 0x63, 0x0c, 0x3d, 0x58, 0xbf, 0x47, 0xbe, 0x68, 0x34, 0x34, 0xbd,
  0x33, 0x12, 0x84, 0xbe, 0x3e, 0x68, 0x58, 0x3e, 0x1e, 0x34, 0x73, 0x3f,
  0x1b, 0x72, 0x00, 0xbd, 0xf5, 0xaa, 0x43, 0xbd, 0xe8, 0xd6, 0x8a, 0xbe,
  0x7e, 0x8c, 0x16, 0x3f, 0xbd, 0x78, 0x41, 0x3e, 0xdd, 0xf7, 0x92, 0xbe,
  0x30, 0x4a, 0xcf, 0x3d, 0xf7, 0x9b, 0xb9, 0x3e, 0x1a, 0x0b, 0xe0, 0xbb,
  0xf1, 0x02, 0xb9, 0x3d, 0x61, 0x99, 0x7d, 0x3d, 0x80, 0xdd, 0x50, 0x3e,
  0xa8, 0x3a, 0x3a, 0x3c, 0x53, 0xdd, 0x54, 0xbe, 0x48, 0x16, 0x50, 0x3e,
  0x7f, 0xbf, 0xb7, 0x3e, 0xfe, 0x8e, 0xbd, 0xbd, 0xd8, 0xf4, 0xb7, 0xbd,
  0x8d, 0xff, 0xdb, 0xbd, 0xcd, 0xbb, 0xa3, 0x3f, 0x1e, 0x41, 0x40, 0x3e,
  0x79, 0x13, 0x33, 0x3d, 0xad, 0x3e, 0x29, 0x3c, 0xdb, 0xea, 0x27, 0xbd,
  0x17, 0x1d, 0x85, 0x3d, 0x5f, 0x0c, 0x64, 0xbe, 0x5e, 0x63, 0x45, 0xbd,
  0x83, 0x16, 0xde, 0x3c, 0x87, 0x07, 0x0e, 0xbd, 0xd9, 0x47, 0xc2, 0x3c,
  0x5f, 0x5f, 0x3c, 0xba, 0xc0, 0xe0, 0x23, 0xbe, 0xa4, 0xc1, 0xdd, 0x3c,
  0x52, 0x55, 0x4f, 0xbc, 0xb6, 0x0c, 0xa9, 0x3b, 0x22, 0x84, 0x8c, 0xbd,
  0xff, 0x58, 0x0d, 0x3d, 0x27, 0x69, 0x00, 0x3e, 0xa8, 0xe7, 0x0a, 0xbc,
  0x45, 0x34, 0x35, 0xbe, 0x61, 0x73, 0x4a, 0xbe, 0xee, 0xee, 0x16, 0xbb,
  0x50, 0xdd, 0x1b, 0xbe, 0x83, 0x7c, 0x09, 0x3e, 0x7f, 0x84, 0xa5, 0xbc,
  0x38, 0x4e, 0xe6, 0xbc, 0x13, 0x27, 0xab, 0x3d, 0x52, 0x1b, 0x12, 0xbd,
  0x90, 0x09, 0x4c, 0xbe, 0x76, 0x3e, 0x0b, 0x3e, 0x27, 0xb5, 0x66, 0x3d,
  0xb4, 0x84, 0x71, 0xbd, 0xdb, 0xd6, 0x3e, 0xbe, 0x05, 0xd4, 0x2a, 0x3e,
  0x27, 0xfe, 0x17, 0x3c, 0xb5, 0xef, 0x09, 0x3e, 0xfe, 0x8e, 0x0f, 0xbe,
  0x43, 0xe4, 0xd3, 0xbd, 0xcc, 0x5c, 0x23, 0x3d, 0x5e, 0x4a, 0x27, 0x3e,
  0xbf, 0x20, 0x61, 0xbe, 0x73, 0x59, 0x68, 0x3d, 0xee, 0x3f, 0x84, 0x3b,
  0x0d, 0x7a, 0xf8, 0xbd, 0xec, 0x92, 0xfc, 0x3d, 0x94, 0x41, 0xb1, 0xbd,
  0x0d, 0xcd, 0x2c, 0xbe, 0x15, 0x62, 0xc3, 0xbd, 0x22, 0x94, 0xb5, 0xbc,
  0xb7, 0xc3, 0xbd, 0x3d, 0x12, 0x9b, 0xce, 0x3d, 0x32, 0xb7, 0xcf, 0x3d,
  0x88, 0xca, 0x5f, 0xbe, 0x27, 0xf2, 0x0c, 0x3d, 0x6b, 0x80, 0x0b, 0x3c,
  0x36, 0xab, 0x65, 0xbe, 0x96, 0x86, 0xac, 0xbd, 0x0e, 0xd2, 0x10, 0x3e,
  0xe3, 0xf9, 0xdd, 0xbd, 0xc9, 0x90, 0x2b, 0xbd, 0xfa, 0x1f, 0x17, 0xbd,
  0x0b, 0xd3, 0x21, 0xbd, 0x68, 0x28, 0xa4, 0xbd, 0xe6, 0xff, 0x0a, 0x3e,
  0x73, 0x0a, 0x26, 0xbe, 0x0a, 0x75, 0x45, 0x3e, 0x8a, 0xd4, 0x5e, 0xbc,
  0xcb, 0xa8, 0x06, 0x3d, 0xdd, 0xd0, 0x26, 0xbe, 0x57, 0xce, 0x77, 0xbe,
  0x98, 0xd3, 0xf7, 0xbd, 0xe2, 0x3a, 0x8e, 0x3b, 0x8f, 0x88, 0x96, 0xbe,
  0x6a, 0xd1, 0xd1, 0x3c, 0xf9, 0x47, 0xd4, 0x3b, 0xdb, 0x9f, 0x0e, 0xbe,
  0xcf, 0x91, 0x42, 0xbe, 0x83, 0xb7, 0x0f, 0x3e, 0x6a, 0xf4, 0xa3, 0xbd,
  0x80, 0x2f, 0x20, 0xbe, 0xd4, 0x46, 0xaf, 0xbd, 0x5f, 0x55, 0xf5, 0xbd,
  0xb0, 0x88, 0xcd, 0x3d, 0x8d, 0x3d, 0x07, 0x3e, 0x6e, 0x18, 0x80, 0x3d,
  0x9b, 0xe0, 0xe8, 0x3d, 0x29, 0x3f, 0xfe, 0xbd, 0x6b, 0xf3, 0xc1, 0xbc,
  0xf0, 0xb0, 0xb2, 0xbe, 0xe0, 0xf4, 0x0c, 0x3e, 0xa8, 0xd2, 0x7d, 0xbe,
  0xd4, 0x00, 0xa7, 0x3d, 0x5f, 0xea, 0x0a, 0x3b, 0x8c, 0xda, 0x5d, 0xbd,
  0x69, 0xb9, 0xc8, 0xbd, 0x00, 0xb1, 0x68, 0x3c, 0xbc, 0x7d, 0x93, 0x3c,
  0xd8, 0x49, 0x27, 0xbc, 0x95, 0xd4, 0x05, 0xbe, 0x7b, 0x5f, 0xd5, 0x3d,
  0xb6, 0x6a, 0xf9, 0x3c, 0x41, 0x69, 0x91, 0xbc, 0x5a, 0x39, 0x6f, 0xbe,
  0x77, 0x54, 0x23, 0xbe, 0x49, 0x14, 0x89, 0xbd, 0x0b, 0x15, 0x45, 0x3d,
  0x1a, 0xe5, 0xf1, 0xbc, 0xa5, 0x98, 0x25, 0xbc, 0x51, 0x3f, 0x91, 0x3c,
  0xd5, 0x15, 0xeb, 0x3c, 0x08, 0x1a, 0x0b, 0x3d, 0x85, 0x7c, 0x16, 0x3d,
  0x34, 0x51, 0x47, 0xbe, 0x69, 0x53, 0x30, 0xbe, 0xff, 0x11, 0x96, 0x3d,
  0xe3, 0x3c, 0x2b, 0xbe, 0x18, 0x83, 0x2c, 0xbe, 0x26, 0x98, 0x0b, 0xbe,
  0x25, 0x44, 0x8f, 0xbc, 0xd0, 0xd9, 0x6e, 0x3c, 0x0e, 0xd2, 0x85, 0xbe,
  0x43, 0x6f, 0xb1, 0x3d, 0x47, 0xcb, 0x83, 0xbe, 0x8d, 0x64, 0x42, 0xbe,
  0x36, 0xe9, 0x65, 0xbc, 0xca, 0x7b, 0xa6, 0xbd, 0xe8, 0x14, 0x6f, 0xbe,
  0xd6, 0x64, 0xd3, 0x3c, 0x19, 0xb2, 0x7b, 0xbe, 0x3d, 0x81, 0x2a, 0xbb,
  0x66, 0xfd, 0xff, 0xff, 0x10, 0x00, 0x00, 0x00, 0x07, 0x00, 0x00, 0x00,
  0x14, 0x00, 0x00, 0x00, 0x2c, 0x00, 0x00, 0x00, 0x02, 0x00, 0x00, 0x00,
  0x10, 0x00, 0x00, 0x00, 0x70, 0x00, 0x00, 0x00, 0x17, 0x00, 0x00, 0x00,
  0x73, 0x65, 0x71, 0x75, 0x65, 0x6e, 0x74, 0x69, 0x61, 0x6c, 0x2f, 0x64,
  0x65, 0x6e, 0x73, 0x65, 0x2f, 0x4d, 0x61, 0x74, 0x4d, 0x75, 0x6c, 0x00,
  0xd0, 0xfc, 0xff, 0xff, 0xda, 0xfd, 0xff, 0xff, 0x04, 0x00, 0x00, 0x00,
  0x08, 0x00, 0x00, 0x00, 0xff, 0xff, 0xff, 0xff, 0x70, 0x00, 0x00, 0x00,
  0x00, 0x00, 0x0e, 0x00, 0x18, 0x00, 0x08, 0x00, 0x07, 0x00, 0x0c, 0x00,
  0x10, 0x00, 0x14, 0x00, 0x0e, 0x00, 0x00, 0x00, 0x00, 0x00, 0x00, 0x02,
  0x10, 0x00, 0x00, 0x00, 0x06, 0x00, 0x00, 0x00, 0x10, 0x00, 0x00, 0x00,
  0x2c, 0x00, 0x00, 0x00, 0x01, 0x00, 0x00, 0x00, 0x02, 0x00, 0x00, 0x00,
  0x18, 0x00, 0x00, 0x00, 0x73, 0x65, 0x71, 0x75, 0x65, 0x6e, 0x74, 0x69,
  0x61, 0x6c, 0x2f, 0x66, 0x6c, 0x61, 0x74, 0x74, 0x65, 0x6e, 0x2f, 0x43,
  0x6f, 0x6e, 0x73, 0x74, 0x00, 0x00, 0x00, 0x00, 0x38, 0xfd, 0xff, 0xff,
  0x42, 0xfe, 0xff, 0xff, 0x04, 0x00, 0x00, 0x00, 0x0c, 0x00, 0x00, 0x00,
  0x39, 0x34, 0xcf, 0xbe, 0xe8, 0xab, 0x9d, 0xbf, 0x29, 0x62, 0x80, 0x3f,
  0x26, 0xfe, 0xff, 0xff, 0x10, 0x00, 0x00, 0x00, 0x05, 0x00, 0x00, 0x00,
  0x10, 0x00, 0x00, 0x00, 0x44, 0x00, 0x00, 0x00, 0x01, 0x00, 0x00, 0x00,
  0x03, 0x00, 0x00, 0x00, 0x32, 0x00, 0x00, 0x00, 0x73, 0x65, 0x71, 0x75,
  0x65, 0x6e, 0x74, 0x69, 0x61, 0x6c, 0x2f, 0x64, 0x65, 0x6e, 0x73, 0x65,
  0x5f, 0x31, 0x2f, 0x42, 0x69, 0x61, 0x73, 0x41, 0x64, 0x64, 0x2f, 0x52,
  0x65, 0x61, 0x64, 0x56, 0x61, 0x72, 0x69, 0x61, 0x62, 0x6c, 0x65, 0x4f,
  0x70, 0x2f, 0x72, 0x65, 0x73, 0x6f, 0x75, 0x72, 0x63, 0x65, 0x00, 0x00,
  0xa8, 0xfd, 0xff, 0xff, 0xb2, 0xfe, 0xff, 0xff, 0x04, 0x00, 0x00, 0x00,
  0x40, 0x00, 0x00, 0x00, 0x34, 0xc7, 0xd4, 0x3e, 0x9c, 0xb1, 0x43, 0x40,
  0xa2, 0xb9, 0x44, 0xbf, 0xde, 0xd7, 0x47, 0xbf, 0x68, 0x54, 0x71, 0x3f,
  0xbe, 0x1c, 0xa8, 0xbe, 0x4b, 0xfd, 0x41, 0xbe, 0x98, 0x37, 0x67, 0x3d,
  0x6f, 0x4c, 0x91, 0x3f, 0x01, 0x91, 0x30, 0xbe, 0xe5, 0xc2, 0xe2, 0xbe,
  0x7b, 0xfb, 0x97, 0xbe, 0x0a, 0xc3, 0x07, 0xbe, 0xb4, 0x56, 0xb2, 0xbe,
  0x47, 0xbd, 0x55, 0x3f, 0xc3, 0x00, 0x39, 0xbe, 0xca, 0xfe, 0xff, 0xff,
  0x10, 0x00, 0x00, 0x00, 0x04, 0x00, 0x00, 0x00, 0x10, 0x00, 0x00, 0x00,
  0x44, 0x00, 0x00, 0x00, 0x01, 0x00, 0x00, 0x00, 0x10, 0x00, 0x00, 0x00,
  0x30, 0x00, 0x00, 0x00, 0x73, 0x65, 0x71, 0x75, 0x65, 0x6e, 0x74, 0x69,
  0x61, 0x6c, 0x2f, 0x64, 0x65, 0x6e, 0x73, 0x65, 0x2f, 0x42, 0x69, 0x61,
  0x73, 0x41, 0x64, 0x64, 0x2f, 0x52, 0x65, 0x61, 0x64, 0x56, 0x61, 0x72,
  0x69, 0x61, 0x62, 0x6c, 0x65, 0x4f, 0x70, 0x2f, 0x72, 0x65, 0x73, 0x6f,
  0x75, 0x72, 0x63, 0x65, 0x00, 0x00, 0x00, 0x00, 0x4c, 0xfe, 0xff, 0xff,
  0x56, 0xff, 0xff, 0xff, 0x04, 0x00, 0x00, 0x00, 0x40, 0x00, 0x00, 0x00,
  0x03, 0xdc, 0x1c, 0x3e, 0xbd, 0xb4, 0xc6, 0xbf, 0x02, 0x1e, 0xca, 0xbd,
  0x00, 0x3f, 0xb3, 0xbd, 0xd4, 0xbc, 0xef, 0xbf, 0xb5, 0x53, 0xa9, 0xbf,
  0xc9, 0x12, 0xed, 0x3d, 0xb4, 0x59, 0xb7, 0xbf, 0xf3, 0xaf, 0xf8, 0xbf,
  0x3e, 0x45, 0x94, 0x40, 0xe6, 0x28, 0xc7, 0xbf, 0x02, 0xb9, 0xcf, 0xbf,
  0x0e, 0xd7, 0x07, 0xbd, 0xc3, 0xce, 0xad, 0x3f, 0x83, 0x9e, 0x8d, 0xbe,
  0x6a, 0xf5, 0x05, 0xbf, 0x6e, 0xff, 0xff, 0xff, 0x10, 0x00, 0x00, 0x00,
  0x03, 0x00, 0x00, 0x00, 0x10, 0x00, 0x00, 0x00, 0x48, 0x00, 0x00, 0x00,
  0x01, 0x00, 0x00, 0x00, 0x10, 0x00, 0x00, 0x00, 0x33, 0x00, 0x00, 0x00,
  0x73, 0x65, 0x71, 0x75, 0x65, 0x6e, 0x74, 0x69, 0x61, 0x6c, 0x2f, 0x63,
  0x6f, 0x6e, 0x76, 0x32, 0x64, 0x5f, 0x31, 0x2f, 0x42, 0x69, 0x61, 0x73,
  0x41, 0x64, 0x64, 0x2f, 0x52, 0x65, 0x61, 0x64, 0x56, 0x61, 0x72, 0x69,
  0x61, 0x62, 0x6c, 0x65, 0x4f, 0x70, 0x2f, 0x72, 0x65, 0x73, 0x6f, 0x75,
  0x72, 0x63, 0x65, 0x00, 0x04, 0x00, 0x06, 0x00, 0x04, 0x00, 0x00, 0x00,
  0x00, 0x00, 0x06, 0x00, 0x08, 0x00, 0x04, 0x00, 0x06, 0x00, 0x00, 0x00,
  0x04, 0x00, 0x00, 0x00, 0x20, 0x00, 0x00, 0x00, 0x84, 0xdd, 0x03, 0xc0,
  0x59, 0x1b, 0x46, 0xbf, 0x93, 0x21, 0xd0, 0xbf, 0xc6, 0xfd, 0x0c, 0xbe,
  0x2b, 0xdd, 0xd3, 0xbe, 0x4a, 0xfc, 0x96, 0xbf, 0xdc, 0xf7, 0x27, 0xc0,
  0xa8, 0x99, 0xc0, 0xbf, 0x00, 0x00, 0x0e, 0x00, 0x14, 0x00, 0x04, 0x00,
  0x00, 0x00, 0x08, 0x00, 0x0c, 0x00, 0x10, 0x00, 0x0e, 0x00, 0x00, 0x00,
  0x10, 0x00, 0x00, 0x00, 0x02, 0x00, 0x00, 0x00, 0x10, 0x00, 0x00, 0x00,
  0x44, 0x00, 0x00, 0x00, 0x01, 0x00, 0x00, 0x00, 0x08, 0x00, 0x00, 0x00,
  0x31, 0x00, 0x00, 0x00, 0x73, 0x65, 0x71, 0x75, 0x65, 0x6e, 0x74, 0x69,
  0x61, 0x6c, 0x2f, 0x63, 0x6f, 0x6e, 0x76, 0x32, 0x64, 0x2f, 0x42, 0x69,
  0x61, 0x73, 0x41, 0x64, 0x64, 0x2f, 0x52, 0x65, 0x61, 0x64, 0x56, 0x61,
  0x72, 0x69, 0x61, 0x62, 0x6c, 0x65, 0x4f, 0x70, 0x2f, 0x72, 0x65, 0x73,
  0x6f, 0x75, 0x72, 0x63, 0x65, 0x00, 0x00, 0x00, 0x90, 0xff, 0xff, 0xff,
  0x14, 0x00, 0x18, 0x00, 0x04, 0x00, 0x00, 0x00, 0x08, 0x00, 0x0c, 0x00,
  0x10, 0x00, 0x00, 0x00, 0x00, 0x00, 0x14, 0x00, 0x14, 0x00, 0x00, 0x00,
  0x14, 0x00, 0x00, 0x00, 0x01, 0x00, 0x00, 0x00, 0x20, 0x00, 0x00, 0x00,
  0x44, 0x00, 0x00, 0x00, 0x2c, 0x00, 0x00, 0x00, 0x04, 0x00, 0x00, 0x00,
  0x01, 0x00, 0x00, 0x00, 0x40, 0x00, 0x00, 0x00, 0x03, 0x00, 0x00, 0x00,
  0x01, 0x00, 0x00, 0x00, 0x0c, 0x00, 0x00, 0x00, 0x63, 0x6f, 0x6e, 0x76,
  0x32, 0x64, 0x5f, 0x69, 0x6e, 0x70, 0x75, 0x74, 0x00, 0x00, 0x00, 0x00,
  0x04, 0x00, 0x00, 0x00, 0xff, 0xff, 0xff, 0xff, 0x40, 0x00, 0x00, 0x00,
  0x03, 0x00, 0x00, 0x00, 0x01, 0x00, 0x00, 0x00, 0xfc, 0xff, 0xff, 0xff,
  0x04, 0x00, 0x04, 0x00, 0x04, 0x00, 0x00, 0x00// Paste the data of the char array in `src/model.cc` here
};

unsigned int model_tflite_len = 13052;// Fill the int in `src/model.cc` here
